{
  "version": "1.0",
  "truncation": null,
  "padding": null,
  "added_tokens": [
    {
      "id": 0,
      "content": "<pad>",
      "single_word": false,
      "lstrip": false,
      "rstrip": false,
      "normalized": false,
      "special": true
    },
    {
      "id": 1,
      "content": "<unk>",
      "single_word": false,
      "lstrip": false,
      "rstrip": false,
      "normalized": false,
      "special": true
    },
    {
      "id": 2,
      "content": "<bos>",
      "single_word": false,
      "lstrip": false,
      "rstrip": false,
      "normalized": false,
      "special": true
    },
    {
      "id": 3,
      "content": "<eos>",
      "single_word": false,
      "lstrip": false,
      "rstrip": false,
      "normalized": false,
      "special": true
    }
  ],
  "normalizer": {
    "type": "Sequence",
    "normalizers": [
      {
        "type": "NFKC"
      }
    ]
  },
  "pre_tokenizer": {
    "type": "ByteLevel",
    "add_prefix_space": false,
    "trim_offsets": true,
    "use_regex": true
  },
  "post_processor": null,
  "decoder": {
    "type": "ByteLevel",
    "add_prefix_space": true,
    "trim_offsets": true,
    "use_regex": true
  },
  "model": {
    "type": "BPE",
    "dropout": null,
    "unk_token": "<unk>",
    "continuing_subword_prefix": null,
    "end_of_word_suffix": null,
    "fuse_unk": false,
    "byte_fallback": false,
    "ignore_merges": false,
    "vocab": {
      "<pad>": 0,
      "<unk>": 1,
      "<bos>": 2,
      "<eos>": 3,
      "!": 4,
      "\"": 5,
      "#": 6,
      "$": 7,
      "%": 8,
      "&": 9,
      "'": 10,
      "(": 11,
      ")": 12,
      "*": 13,
      "+": 14,
      ",": 15,
      "-": 16,
      ".": 17,
      "/": 18,
      "0": 19,
      "1": 20,
      "2": 21,
      "3": 22,
      "4": 23,
      "5": 24,
      "6": 25,
      "7": 26,
      "8": 27,
      "9": 28,
      ":": 29,
      ";": 30,
      "<": 31,
      "=": 32,
      ">": 33,
      "?": 34,
      "@": 35,
      "A": 36,
      "B": 37,
      "C": 38,
      "D": 39,
      "E": 40,
      "F": 41,
      "G": 42,
      "H": 43,
      "I": 44,
      "J": 45,
      "K": 46,
      "L": 47,
      "M": 48,
      "N": 49,
      "O": 50,
      "P": 51,
      "Q": 52,
      "R": 53,
      "S": 54,
      "T": 55,
      "U": 56,
      "V": 57,
      "W": 58,
      "X": 59,
      "Y": 60,
      "Z": 61,
      "[": 62,
      "\\": 63,
      "]": 64,
      "^": 65,
      "_": 66,
      "`": 67,
      "a": 68,
      "b": 69,
      "c": 70,
      "d": 71,
      "e": 72,
      "f": 73,
      "g": 74,
      "h": 75,
      "i": 76,
      "j": 77,
      "k": 78,
      "l": 79,
      "m": 80,
      "n": 81,
      "o": 82,
      "p": 83,
      "q": 84,
      "r": 85,
      "s": 86,
      "t": 87,
      "u": 88,
      "v": 89,
      "w": 90,
      "x": 91,
      "y": 92,
      "z": 93,
      "{": 94,
      "|": 95,
      "}": 96,
      "~": 97,
      "¡": 98,
      "¢": 99,
      "£": 100,
      "¤": 101,
      "¥": 102,
      "¦": 103,
      "§": 104,
      "¨": 105,
      "©": 106,
      "ª": 107,
      "«": 108,
      "¬": 109,
      "®": 110,
      "¯": 111,
      "°": 112,
      "±": 113,
      "²": 114,
      "³": 115,
      "´": 116,
      "µ": 117,
      "¶": 118,
      "·": 119,
      "¸": 120,
      "¹": 121,
      "º": 122,
      "»": 123,
      "¼": 124,
      "½": 125,
      "¾": 126,
      "¿": 127,
      "Â": 128,
      "Ã": 129,
      "Ä": 130,
      "Å": 131,
      "Æ": 132,
      "Ç": 133,
      "È": 134,
      "É": 135,
      "Ê": 136,
      "Ë": 137,
      "Ì": 138,
      "Î": 139,
      "Ï": 140,
      "Ð": 141,
      "Ñ": 142,
      "Ò": 143,
      "Ó": 144,
      "Ô": 145,
      "Õ": 146,
      "Ö": 147,
      "×": 148,
      "Ø": 149,
      "Ù": 150,
      "Ú": 151,
      "Û": 152,
      "Þ": 153,
      "à": 154,
      "á": 155,
      "â": 156,
      "ã": 157,
      "ä": 158,
      "å": 159,
      "æ": 160,
      "ç": 161,
      "è": 162,
      "é": 163,
      "ë": 164,
      "ì": 165,
      "í": 166,
      "ï": 167,
      "ð": 168,
      "ā": 169,
      "Ă": 170,
      "Ċ": 171,
      "č": 172,
      "Ġ": 173,
      "Ģ": 174,
      "ģ": 175,
      "Ĥ": 176,
      "ĥ": 177,
      "Ħ": 178,
      "ħ": 179,
      "Ĩ": 180,
      "ĩ": 181,
      "Ī": 182,
      "ī": 183,
      "Ĭ": 184,
      "ĭ": 185,
      "Į": 186,
      "į": 187,
      "İ": 188,
      "ı": 189,
      "Ĳ": 190,
      "ĳ": 191,
      "Ĵ": 192,
      "ĵ": 193,
      "Ķ": 194,
      "ķ": 195,
      "ĸ": 196,
      "Ĺ": 197,
      "ĺ": 198,
      "Ļ": 199,
      "ļ": 200,
      "Ľ": 201,
      "ľ": 202,
      "Ŀ": 203,
      "ŀ": 204,
      "Ł": 205,
      "ł": 206,
      "Ń": 207,
      "čĊ": 208,
      "Ġt": 209,
      "in": 210,
      "Ġa": 211,
      "he": 212,
      "on": 213,
      "re": 214,
      "er": 215,
      "at": 216,
      "Ġthe": 217,
      "Ġs": 218,
      "Ġc": 219,
      "or": 220,
      "en": 221,
      "es": 222,
      "is": 223,
      "it": 224,
      "ion": 225,
      "Ġf": 226,
      "le": 227,
      "ing": 228,
      "al": 229,
      "an": 230,
      "ou": 231,
      "Ġp": 232,
      "ct": 233,
      "Ġin": 234,
      "Ġw": 235,
      "Ġan": 236,
      "Ġd": 237,
      "Ġo": 238,
      "se": 239,
      "ar": 240,
      "Ġm": 241,
      "Ġn": 242,
      "st": 243,
      "Ġto": 244,
      "Ġb": 245,
      "ro": 246,
      "Ġre": 247,
      "ed": 248,
      "Ġand": 249,
      "ic": 250,
      "Ġof": 251,
      "Ġe": 252,
      "ent": 253,
      "Ġ=": 254,
      "um": 255,
      "Ġl": 256,
      "``": 257,
      "de": 258,
      "mp": 259,
      "Ġth": 260,
      "Ġis": 261,
      "Ġi": 262,
      "ut": 263,
      "et": 264,
      "ra": 265,
      "Ġ1": 266,
      "ction": 267,
      "##": 268,
      "Ġu": 269,
      "Ġco": 270,
      "ur": 271,
      "ll": 272,
      "ve": 273,
      "ĠI": 274,
      "Ġst": 275,
      "Ġy": 276,
      "ation": 277,
      "me": 278,
      "ce": 279,
      "as": 280,
      "Ġfor": 281,
      "qu": 282,
      "ot": 283,
      "ri": 284,
      "ch": 285,
      "os": 286,
      "ate": 287,
      "ly": 288,
      "Ġ2": 289,
      "un": 290,
      "Ġyou": 291,
      "Ġh": 292,
      "th": 293,
      "Ġit": 294,
      "ĠT": 295,
      "ul": 296,
      "ow": 297,
      "ist": 298,
      "Ġpro": 299,
      "ers": 300,
      "Ġv": 301,
      "ld": 302,
      "```": 303,
      "ith": 304,
      "ge": 305,
      "Ġbe": 306,
      "ment": 307,
      "Ġ`": 308,
      "ig": 309,
      "Ġ'": 310,
      "Ġ(": 311,
      "Ġcon": 312,
      "Ġ\"": 313,
      "ata": 314,
      "id": 315,
      "nt": 316,
      "Ġthat": 317,
      "int": 318,
      "if": 319,
      "Ġg": 320,
      "ru": 321,
      "pt": 322,
      "urn": 323,
      "Ġwith": 324,
      "Ġnum": 325,
      "ble": 326,
      "ĠS": 327,
      "unction": 328,
      "Ġas": 329,
      "Ġret": 330,
      "###": 331,
      "ver": 332,
      "--": 333,
      "Ġif": 334,
      "ort": 335,
      "Ġreturn": 336,
      "ol": 337,
      "ĠčĊ": 338,
      "Ġon": 339,
      "il": 340,
      "pp": 341,
      "Ġint": 342,
      "Ġor": 343,
      "Ġfunction": 344,
      "Ġex": 345,
      "ĠA": 346,
      "ould": 347,
      "est": 348,
      "ĠP": 349,
      "ring": 350,
      "ĠR": 351,
      "mple": 352,
      "ck": 353,
      "ĠC": 354,
      "yth": 355,
      "Ġ{": 356,
      "Ġse": 357,
      "pe": 358,
      "ython": 359,
      "ke": 360,
      "Ġthis": 361,
      "ase": 362,
      "Ġde": 363,
      "and": 364,
      "Ġdata": 365,
      "res": 366,
      "ad": 367,
      "Ġ|": 368,
      "im": 369,
      "Ġcan": 370,
      "Ġmo": 371,
      "Ġnumb": 372,
      "Ġus": 373,
      "()": 374,
      "ess": 375,
      "Ġne": 376,
      "ir": 377,
      "put": 378,
      "Ġnot": 379,
      "pl": 380,
      "ĠIn": 381,
      "Ġma": 382,
      "ult": 383,
      "Ġ0": 384,
      "ere": 385,
      "iv": 386,
      "alu": 387,
      "Ġar": 388,
      "om": 389,
      "Ġare": 390,
      "Ġsu": 391,
      "Ġr": 392,
      "iz": 393,
      "pon": 394,
      "00": 395,
      "ive": 396,
      "rom": 397,
      "ĠThe": 398,
      "ht": 399,
      "lo": 400,
      "end": 401,
      "ant": 402,
      "age": 403,
      "Ġsh": 404,
      "rint": 405,
      "ity": 406,
      "ame": 407,
      "Ġal": 408,
      "ord": 409,
      "Ġyour": 410,
      "Ġ3": 411,
      "ĠF": 412,
      "ill": 413,
      "stru": 414,
      "Ġch": 415,
      "Ġwh": 416,
      "Ġ<": 417,
      "):": 418,
      "od": 419,
      "Ġ[": 420,
      "out": 421,
      "act": 422,
      "'s": 423,
      "em": 424,
      "Ġcode": 425,
      "ray": 426,
      "his": 427,
      "ount": 428,
      "ass": 429,
      "ure": 430,
      "Ġlist": 431,
      "ponse": 432,
      "Ġwe": 433,
      "Ġ-": 434,
      "Ġuse": 435,
      "per": 436,
      "ex": 437,
      "ay": 438,
      "ect": 439,
      "Ġres": 440,
      "able": 441,
      "orm": 442,
      "ĠRes": 443,
      "am": 444,
      "struction": 445,
      "Ġqu": 446,
      "ach": 447,
      "=\"": 448,
      "ies": 449,
      "cc": 450,
      "Ġ}": 451,
      "lement": 452,
      "bos": 453,
      "ĠResponse": 454,
      "ial": 455,
      "ĠInstruction": 456,
      "eos": 457,
      "ain": 458,
      "her": 459,
      "Ġ+": 460,
      "dd": 461,
      ");": 462,
      "ab": 463,
      "so": 464,
      "Ġstring": 465,
      "cl": 466,
      "ary": 467,
      "Ġnumber": 468,
      "',": 469,
      "Ġ#": 470,
      "Ġby": 471,
      "art": 472,
      "Ġshould": 473,
      "ile": 474,
      "ore": 475,
      "ĠD": 476,
      "Ġfrom": 477,
      "nd": 478,
      "ĠM": 479,
      "ter": 480,
      "ine": 481,
      "av": 482,
      "Ġle": 483,
      "cri": 484,
      "ode": 485,
      "gra": 486,
      "Ġvalu": 487,
      "Ġcomp": 488,
      "ind": 489,
      "ition": 490,
      "))": 491,
      "form": 492,
      "Ġwill": 493,
      "ust": 494,
      "us": 495,
      "Ġapp": 496,
      "ĠPython": 497,
      "//": 498,
      "cript": 499,
      "Ġall": 500,
      "----": 501,
      "ib": 502,
      "ĠH": 503,
      "Ġlo": 504,
      "Ġusing": 505,
      "Ġen": 506,
      "ext": 507,
      "Ġcl": 508,
      "Ġwhe": 509,
      "ror": 510,
      "all": 511,
      "ical": 512,
      "\",": 513,
      "ĠN": 514,
      "ire": 515,
      "eg": 516,
      "Ġdo": 517,
      "ance": 518,
      "Ġarray": 519,
      "Ġ5": 520,
      "mport": 521,
      "ight": 522,
      "ich": 523,
      "lf": 524,
      "The": 525,
      "ĠE": 526,
      "Ġelement": 527,
      "Ġeach": 528,
      "ang": 529,
      "our": 530,
      "ub": 531,
      "ime": 532,
      "ations": 533,
      "Ġhe": 534,
      "ĠB": 535,
      "def": 536,
      "ave": 537,
      "python": 538,
      "lic": 539,
      "In": 540,
      "Ġ4": 541,
      "ie": 542,
      "Ġ*": 543,
      "Ġcont": 544,
      "ff": 545,
      "Ġwhich": 546,
      "con": 547,
      "ange": 548,
      "ap": 549,
      "ĠL": 550,
      "Ġchar": 551,
      "are": 552,
      "heck": 553,
      "num": 554,
      "ag": 555,
      "op": 556,
      "print": 557,
      "gram": 558,
      "el": 559,
      "Ġresult": 560,
      "(\"": 561,
      "ip": 562,
      "ĠO": 563,
      "Ġinput": 564,
      "ence": 565,
      "ution": 566,
      "du": 567,
      "ize": 568,
      "ĠJ": 569,
      "pec": 570,
      "ans": 571,
      "Ġadd": 572,
      "ep": 573,
      "Ġsol": 574,
      "Ġmet": 575,
      "ack": 576,
      "Ġhave": 577,
      "ates": 578,
      "ated": 579,
      "Ġout": 580,
      "Ġ$": 581,
      "Ġmode": 582,
      "Ġ==": 583,
      "ĠW": 584,
      "Ġat": 585,
      "Ġnumbers": 586,
      "ĠIf": 587,
      "Ġper": 588,
      "ace": 589,
      "),": 590,
      "one": 591,
      "ĠThis": 592,
      "Ġprint": 593,
      "ide": 594,
      "di": 595,
      "Ġer": 596,
      "ry": 597,
      "ike": 598,
      "cess": 599,
      "Ġhand": 600,
      "ther": 601,
      "ample": 602,
      "ork": 603,
      "Ġmodel": 604,
      "irst": 605,
      "Ġun": 606,
      "Ġneed": 607,
      "eng": 608,
      "ph": 609,
      "This": 610,
      "Ġso": 611,
      "Ġalso": 612,
      "Ġpre": 613,
      "Ġj": 614,
      "ĠG": 615,
      "Ġrequ": 616,
      "],": 617,
      "hod": 618,
      "('": 619,
      "ject": 620,
      "Ġro": 621,
      "Ġcom": 622,
      "Ġcre": 623,
      "Ġcharact": 624,
      "ac": 625,
      "Ġprogram": 626,
      "ath": 627,
      "key": 628,
      "Ġsc": 629,
      "ating": 630,
      ").": 631,
      "Ġcomple": 632,
      "ally": 633,
      "Ġclass": 634,
      "Here": 635,
      "Ġset": 636,
      "Ġspec": 637,
      "set": 638,
      "Ġ//": 639,
      "ari": 640,
      "sion": 641,
      "ign": 642,
      "Ġ10": 643,
      "Ġdef": 644,
      "Ġel": 645,
      "Ġmethod": 646,
      "ific": 647,
      "Ġvalue": 648,
      "Ġnew": 649,
      "Ġprov": 650,
      "Ġinteg": 651,
      "Ġacc": 652,
      "Ġinto": 653,
      "cul": 654,
      "ĠU": 655,
      "ava": 656,
      "Ġcheck": 657,
      "clu": 658,
      "Ġcol": 659,
      "ite": 660,
      "Ġcount": 661,
      "Ġ6": 662,
      "ast": 663,
      "antum": 664,
      "Ġsy": 665,
      "Ġcal": 666,
      "Ġpri": 667,
      "fere": 668,
      "Ġlike": 669,
      "Ġpos": 670,
      "get": 671,
      "string": 672,
      "iven": 673,
      "99": 674,
      "name": 675,
      "Ġcor": 676,
      "cept": 677,
      "ail": 678,
      "ength": 679,
      "enc": 680,
      "Ġme": 681,
      "stem": 682,
      "Ġthen": 683,
      "rans": 684,
      "Ġerror": 685,
      "ĠIt": 686,
      "Ġword": 687,
      "Ġsort": 688,
      "ound": 689,
      "Ġtw": 690,
      "blem": 691,
      "Ġbut": 692,
      "Ġwould": 693,
      "ser": 694,
      "les": 695,
      "Ġcomplex": 696,
      "Ġany": 697,
      "urre": 698,
      "alid": 699,
      "dex": 700,
      "ard": 701,
      "ous": 702,
      "Ġproblem": 703,
      "data": 704,
      "Ġfo": 705,
      "Ġquantum": 706,
      "Ġsub": 707,
      "ice": 708,
      "12": 709,
      "rain": 710,
      "oo": 711,
      "ener": 712,
      "ery": 713,
      "10": 714,
      "gor": 715,
      "Ġtime": 716,
      "ient": 717,
      "list": 718,
      "Ġty": 719,
      "Ġsum": 720,
      "Ġrange": 721,
      "word": 722,
      "Ġfirst": 723,
      "mplement": 724,
      "rue": 725,
      "Ġx": 726,
      "Ġtwo": 727,
      "Ġ7": 728,
      "ong": 729,
      "St": 730,
      "Ġelements": 731,
      "You": 732,
      "base": 733,
      "Ġdif": 734,
      "Ġ8": 735,
      "Ġinst": 736,
      "Ġmore": 737,
      "ify": 738,
      "Ġoper": 739,
      "ber": 740,
      "Ġthese": 741,
      "ask": 742,
      "ue": 743,
      "app": 744,
      "Ġup": 745,
      "Ġsolution": 746,
      "Ġits": 747,
      "Ġhas": 748,
      "Ġmat": 749,
      "Ġev": 750,
      "</": 751,
      "Ġcalcul": 752,
      "Ġused": 753,
      "Ġcons": 754,
      "Ġself": 755,
      "**": 756,
      "Ġwhere": 757,
      "der": 758,
      "Ġman": 759,
      "rect": 760,
      "llow": 761,
      "Ġmult": 762,
      "Ġk": 763,
      "low": 764,
      "Ġeff": 765,
      "Ġab": 766,
      "ual": 767,
      "co": 768,
      "Ġ9": 769,
      "Ġvalues": 770,
      "Ġhow": 771,
      "dent": 772,
      "import": 773,
      "Ġone": 774,
      "ree": 775,
      "Ġimport": 776,
      "Ġ>": 777,
      "Ġgiven": 778,
      "ak": 779,
      "ft": 780,
      "Ġcomm": 781,
      "QL": 782,
      "Ġob": 783,
      "mat": 784,
      "ty": 785,
      "Ġuser": 786,
      "'t": 787,
      "Ġdoes": 788,
      "sum": 789,
      "')": 790,
      "Ġser": 791,
      "':": 792,
      "ative": 793,
      "alse": 794,
      "to": 795,
      "Ġmax": 796,
      "Ġdes": 797,
      "ns": 798,
      "Ġfollow": 799,
      "Ġkey": 800,
      "Ġelse": 801,
      "pres": 802,
      "34": 803,
      "Ġpl": 804,
      "Ġtest": 805,
      "Ġdiffere": 806,
      "Ġvari": 807,
      "oint": 808,
      "Ġsi": 809,
      "rou": 810,
      "Ġonly": 811,
      "Ġcomput": 812,
      "ec": 813,
      "Ġexample": 814,
      "arn": 815,
      "])": 816,
      "iqu": 817,
      "ĠJava": 818,
      "etw": 819,
      "ithm": 820,
      "ne": 821,
      "self": 822,
      "Ġget": 823,
      "\")": 824,
      "ible": 825,
      "--------": 826,
      "Ġimplement": 827,
      "Ġthan": 828,
      "Ġperform": 829,
      "ove": 830,
      "Ġad": 831,
      "Ġcould": 832,
      "Ġinclu": 833,
      "ise": 834,
      "Ġte": 835,
      "com": 836,
      "Ġdi": 837,
      "quence": 838,
      "ĠV": 839,
      "ential": 840,
      "ĠSt": 841,
      "Ġover": 842,
      "Ġstr": 843,
      "Ġinter": 844,
      "urrent": 845,
      "Ġother": 846,
      "Ġfind": 847,
      "Ġsuch": 848,
      "Ġhandle": 849,
      "Ġoutput": 850,
      "Ġpar": 851,
      "Ġgener": 852,
      "duct": 853,
      "Ġprovid": 854,
      "Ġscript": 855,
      "its": 856,
      "ens": 857,
      "alue": 858,
      "Ġtrans": 859,
      "Ġsystem": 860,
      "Ġmight": 861,
      "use": 862,
      "Ġcase": 863,
      "ear": 864,
      "ory": 865,
      "anc": 866,
      "Ġtheir": 867,
      "Ġrequire": 868,
      "ax": 869,
      "cre": 870,
      "Ġ20": 871,
      "ibr": 872,
      "`.": 873,
      "Ġwhen": 874,
      "pri": 875,
      "Ġwork": 876,
      "lease": 877,
      "te": 878,
      "up": 879,
      "Ġ12": 880,
      "Ġopt": 881,
      "Ġthere": 882,
      "ost": 883,
      "Ġtable": 884,
      "amp": 885,
      "count": 886,
      "gorithm": 887,
      "from": 888,
      "..": 889,
      "gh": 890,
      "arr": 891,
      "pro": 892,
      "Ġent": 893,
      "\":": 894,
      "Ġcorrect": 895,
      "Ġdis": 896,
      "Ġprocess": 897,
      "Ġfe": 898,
      "Ġbu": 899,
      "ument": 900,
      "vert": 901,
      "ures": 902,
      "Ġorder": 903,
      "Ġtext": 904,
      "ility": 905,
      "Ġname": 906,
      "Ġcontain": 907,
      "Ġrun": 908,
      "ding": 909,
      "ifi": 910,
      "Ġcreate": 911,
      "Ġcharacters": 912,
      "__": 913,
      "Ġbase": 914,
      "Ġwhile": 915,
      "ml": 916,
      "Ġtask": 917,
      "Ġstart": 918,
      "ider": 919,
      "nder": 920,
      "str": 921,
      "ull": 922,
      "Ġ15": 923,
      "Ġlet": 924,
      "ments": 925,
      "pect": 926,
      "Ġpart": 927,
      "verse": 928,
      "Ġfile": 929,
      "par": 930,
      "inal": 931,
      "Ġend": 932,
      "Ġlibr": 933,
      "Ġalgorithm": 934,
      "ors": 935,
      "erm": 936,
      "11": 937,
      "`,": 938,
      "Ġdet": 939,
      "rig": 940,
      "Ġdifferent": 941,
      "Ġapplic": 942,
      "Ġprime": 943,
      "Ġequ": 944,
      "read": 945,
      "cur": 946,
      "Ġrem": 947,
      "32": 948,
      "rror": 949,
      "Ġ%": 950,
      "ca": 951,
      "ions": 952,
      "Ġdist": 953,
      "ique": 954,
      "Ġwithin": 955,
      "Ġens": 956,
      "row": 957,
      "ics": 958,
      "Ġemp": 959,
      "led": 960,
      "lect": 961,
      "Ġreturns": 962,
      "rib": 963,
      "dict": 964,
      "ices": 965,
      "Ġsp": 966,
      "Ġlength": 967,
      "ute": 968,
      "Ġlen": 969,
      "Ġ16": 970,
      "ose": 971,
      "Ġobject": 972,
      "Ġ**": 973,
      "Con": 974,
      "ublic": 975,
      "Ġlar": 976,
      "nce": 977,
      "Ġfil": 978,
      "Ġvalid": 979,
      "Ġcharacter": 980,
      "Ġappro": 981,
      "Ġwant": 982,
      "25": 983,
      "000": 984,
      "ĠSQL": 985,
      "oth": 986,
      "Ġ&": 987,
      "Ex": 988,
      "velo": 989,
      "Ġarr": 990,
      "ĠFor": 991,
      "Ġspecific": 992,
      "15": 993,
      "ruct": 994,
      "Ġcurrent": 995,
      "Ġmin": 996,
      "ages": 997,
      "ling": 998,
      "tal": 999,
      "ever": 1000,
      "ically": 1001,
      "Ġtype": 1002,
      "Ġmay": 1003,
      "Ġdep": 1004,
      "20": 1005,
      "andom": 1006,
      "Script": 1007,
      "rix": 1008,
      "Ġindex": 1009,
      "\">": 1010,
      "++": 1011,
      "otential": 1012,
      "Ġ+=": 1013,
      "een": 1014,
      "ML": 1015,
      "][": 1016,
      "\"\"": 1017,
      "Ġimp": 1018,
      "Ġ/": 1019,
      "pre": 1020,
      "Ġthem": 1021,
      "arch": 1022,
      "ular": 1023,
      "test": 1024,
      "ild": 1025,
      "ustom": 1026,
      "Ġstruct": 1027,
      "ting": 1028,
      "ract": 1029,
      "ency": 1030,
      "Ġpotential": 1031,
      "Ġ11": 1032,
      "([": 1033,
      "Ġunder": 1034,
      "etween": 1035,
      "Ġinteger": 1036,
      "odel": 1037,
      "ps": 1038,
      "Ġtotal": 1039,
      "23": 1040,
      "Ġ19": 1041,
      "ower": 1042,
      "aly": 1043,
      "irect": 1044,
      "pos": 1045,
      "text": 1046,
      "Ġcomplexity": 1047,
      "Ġinv": 1048,
      "cond": 1049,
      "rite": 1050,
      "Ġlog": 1051,
      "Ġdiv": 1052,
      "Ġsame": 1053,
      "li": 1054,
      "fore": 1055,
      "Ġbetween": 1056,
      "ases": 1057,
      "ield": 1058,
      "ĠYou": 1059,
      "col": 1060,
      "itive": 1061,
      "ER": 1062,
      "Ġsequence": 1063,
      "angu": 1064,
      "ending": 1065,
      "14": 1066,
      "ix": 1067,
      "acc": 1068,
      "right": 1069,
      "Ġhig": 1070,
      "Error": 1071,
      "Ġpoint": 1072,
      "place": 1073,
      "ces": 1074,
      "Ġ14": 1075,
      "Ġdiction": 1076,
      "Ġfollowing": 1077,
      "ctions": 1078,
      "Ġmod": 1079,
      "Ġway": 1080,
      "ink": 1081,
      "sv": 1082,
      "To": 1083,
      "velop": 1084,
      "ĠCon": 1085,
      "div": 1086,
      "date": 1087,
      "Ġdatabase": 1088,
      "Ġmake": 1089,
      "Ġsimple": 1090,
      "own": 1091,
      "Ġsome": 1092,
      "lt": 1093,
      "iew": 1094,
      "Ġcolum": 1095,
      "cal": 1096,
      "Ġposs": 1097,
      "Ġ13": 1098,
      "ator": 1099,
      "owever": 1100,
      "Ġconsider": 1101,
      "ert": 1102,
      "Ġform": 1103,
      "ss": 1104,
      "py": 1105,
      "ersion": 1106,
      "Ġim": 1107,
      "fter": 1108,
      "Ġwords": 1109,
      "Ġapplication": 1110,
      "og": 1111,
      "Ġquery": 1112,
      "Ġam": 1113,
      "amet": 1114,
      "ĠJavaScript": 1115,
      "Ġz": 1116,
      "ĠK": 1117,
      "Ġext": 1118,
      "icient": 1119,
      "16": 1120,
      "hen": 1121,
      "ick": 1122,
      "struct": 1123,
      "Ġeven": 1124,
      "Ġthey": 1125,
      "ified": 1126,
      "Ġprovided": 1127,
      "ell": 1128,
      "inary": 1129,
      "Re": 1130,
      "Ġmultip": 1131,
      "itial": 1132,
      "array": 1133,
      "18": 1134,
      "ake": 1135,
      "();": 1136,
      "Ġtra": 1137,
      "Ġconvert": 1138,
      "Ġdataset": 1139,
      "Ġ<=": 1140,
      "sort": 1141,
      "ming": 1142,
      "::": 1143,
      "requ": 1144,
      "imum": 1145,
      "present": 1146,
      "path": 1147,
      "Ġreg": 1148,
      "ress": 1149,
      "ization": 1150,
      "ĠSV": 1151,
      "rame": 1152,
      "Ġbased": 1153,
      "Ġoptim": 1154,
      "edi": 1155,
      "tern": 1156,
      "oid": 1157,
      "Ġ18": 1158,
      "Ġboth": 1159,
      "rypt": 1160,
      "Ġfeat": 1161,
      "Ġact": 1162,
      "Ġunique": 1163,
      "Ġtrain": 1164,
      "plic": 1165,
      "sh": 1166,
      "let": 1167,
      "LE": 1168,
      "19": 1169,
      "Ġ17": 1170,
      "Ġrepresent": 1171,
      "Ġloop": 1172,
      "ĠFalse": 1173,
      "Please": 1174,
      "Ġ25": 1175,
      "for": 1176,
      "Ġno": 1177,
      "Ġnon": 1178,
      "://": 1179,
      "Ġiter": 1180,
      "Ġlangu": 1181,
      "bers": 1182,
      "Ġsorted": 1183,
      "Ġra": 1184,
      "ok": 1185,
      "75": 1186,
      "']": 1187,
      "rough": 1188,
      "els": 1189,
      "loy": 1190,
      "Ġgo": 1191,
      "essage": 1192,
      "Ġdictionary": 1193,
      "ev": 1194,
      "Ġstrings": 1195,
      "Ġexcept": 1196,
      "Ġstat": 1197,
      "length": 1198,
      "String": 1199,
      "hes": 1200,
      "Ġnote": 1201,
      "ined": 1202,
      "Ġfact": 1203,
      "class": 1204,
      "arget": 1205,
      "aries": 1206,
      "ays": 1207,
      "Ġitem": 1208,
      "ote": 1209,
      "Ġ:": 1210,
      "Ġfill": 1211,
      "ob": 1212,
      "ĠHere": 1213,
      "22": 1214,
      "char": 1215,
      "Ġident": 1216,
      "Ġdirect": 1217,
      "ized": 1218,
      "mall": 1219,
      "log": 1220,
      "cause": 1221,
      "13": 1222,
      "Ġbecause": 1223,
      "plit": 1224,
      "Ġ22": 1225,
      "ĠWe": 1226,
      "PI": 1227,
      "Ġrow": 1228,
      "Ġproduct": 1229,
      "ĠRe": 1230,
      "ities": 1231,
      "Ġnode": 1232,
      "Ġweb": 1233,
      "js": 1234,
      "input": 1235,
      "value": 1236,
      "ĠHT": 1237,
      "Ġcalculate": 1238,
      "Ġstep": 1239,
      "Ġcall": 1240,
      "Ġ23": 1241,
      "17": 1242,
      "ĠEx": 1243,
      "Ġthrough": 1244,
      "Ġgra": 1245,
      "ĠTrue": 1246,
      "train": 1247,
      "yn": 1248,
      "ĠSVG": 1249,
      "Ġproper": 1250,
      "omp": 1251,
      "Ġstructure": 1252,
      "Ġdig": 1253,
      "Ġprovide": 1254,
      "Ġensure": 1255,
      "Ġtyp": 1256,
      "air": 1257,
      "Ġintegers": 1258,
      "ci": 1259,
      "ables": 1260,
      "sole": 1261,
      "Ġmy": 1262,
      "CT": 1263,
      "Ġstate": 1264,
      "reate": 1265,
      "ision": 1266,
      "âĢ": 1267,
      "['": 1268,
      "append": 1269,
      "SS": 1270,
      "graph": 1271,
      "arning": 1272,
      "dition": 1273,
      "Ġ21": 1274,
      "Ġ!": 1275,
      "Ġeffect": 1276,
      "Ġback": 1277,
      "Ġtry": 1278,
      "cument": 1279,
      "24": 1280,
      "Ġdec": 1281,
      "Ġsize": 1282,
      "Ġhere": 1283,
      "Ġsecond": 1284,
      "ĠAdd": 1285,
      "my": 1286,
      "Ġpossible": 1287,
      "val": 1288,
      "des": 1289,
      "case": 1290,
      "Ġnam": 1291,
      "stand": 1292,
      "Ġmain": 1293,
      "utput": 1294,
      "RO": 1295,
      "sub": 1296,
      "Ġhandling": 1297,
      "vice": 1298,
      "Ġ24": 1299,
      "Ġmultiple": 1300,
      "'.": 1301,
      "red": 1302,
      "play": 1303,
      "Ġconst": 1304,
      "ĠY": 1305,
      "Ġuses": 1306,
      "Ġid": 1307,
      "line": 1308,
      "Ġperformance": 1309,
      "Ġsupp": 1310,
      "cor": 1311,
      "ves": 1312,
      "Ġorig": 1313,
      "htt": 1314,
      "Ġprogramming": 1315,
      "Ġtak": 1316,
      "Ġaut": 1317,
      "Ġanaly": 1318,
      "imit": 1319,
      "List": 1320,
      "assword": 1321,
      "Ġchecks": 1322,
      "Ġdesign": 1323,
      "89": 1324,
      "len": 1325,
      "Ġpr": 1326,
      "acci": 1327,
      "/>": 1328,
      "vel": 1329,
      "26": 1330,
      "model": 1331,
      "Ġem": 1332,
      "onacci": 1333,
      "ilt": 1334,
      "Ġline": 1335,
      "add": 1336,
      "Ġ30": 1337,
      "Ġpublic": 1338,
      "77": 1339,
      "&#": 1340,
      "ability": 1341,
      "Ġ.": 1342,
      "Ġparamet": 1343,
      "ĠAPI": 1344,
      "lso": 1345,
      "ibonacci": 1346,
      "Ġoperation": 1347,
      "gle": 1348,
      "Ar": 1349,
      "ook": 1350,
      "Ġhel": 1351,
      "Ġnumer": 1352,
      "Ġallow": 1353,
      "Ġmust": 1354,
      "\"/>": 1355,
      "Ġlibrary": 1356,
      "reat": 1357,
      "âĤ": 1358,
      "âĤ¬": 1359,
      "()`": 1360,
      "Ġexec": 1361,
      "port": 1362,
      "ving": 1363,
      "Ġ[]": 1364,
      "Ġabove": 1365,
      "ark": 1366,
      "Ġfunctions": 1367,
      "index": 1368,
      "formation": 1369,
      "quare": 1370,
      "chn": 1371,
      "56": 1372,
      "SE": 1373,
      "ĠPro": 1374,
      "Ġsmall": 1375,
      "rit": 1376,
      "time": 1377,
      "prime": 1378,
      "ox": 1379,
      "Ġrequest": 1380,
      "Ġatt": 1381,
      "ug": 1382,
      "very": 1383,
      "orld": 1384,
      "ww": 1385,
      "Ġconf": 1386,
      "Ġrandom": 1387,
      "ved": 1388,
      "ystem": 1389,
      "Ġreal": 1390,
      "html": 1391,
      "Name": 1392,
      "mem": 1393,
      "old": 1394,
      "39": 1395,
      "Ġexist": 1396,
      "ning": 1397,
      "ero": 1398,
      "ON": 1399,
      "xt": 1400,
      "Ġarg": 1401,
      "cket": 1402,
      "Ġocc": 1403,
      "Ġ26": 1404,
      "Ġcommand": 1405,
      "sert": 1406,
      "util": 1407,
      "Qu": 1408,
      "Ġ=>": 1409,
      "For": 1410,
      "ĠHowever": 1411,
      "su": 1412,
      "Ġlarge": 1413,
      "Ġsk": 1414,
      "28": 1415,
      "ner": 1416,
      "Ġcondition": 1417,
      "alind": 1418,
      "Ġstore": 1419,
      "Ġversion": 1420,
      "imal": 1421,
      "uring": 1422,
      "Ġunderstand": 1423,
      "Ġinclude": 1424,
      "Ġmethods": 1425,
      "Ġincre": 1426,
      "max": 1427,
      "ish": 1428,
      "Ġsent": 1429,
      "ĠHTML": 1430,
      "numbers": 1431,
      "64": 1432,
      "Ġcustom": 1433,
      "rid": 1434,
      "Ġefficient": 1435,
      "\".": 1436,
      "ĠX": 1437,
      "Ġinitial": 1438,
      "size": 1439,
      "Ġoriginal": 1440,
      "Ġhigh": 1441,
      "ension": 1442,
      "pper": 1443,
      "Ġresults": 1444,
      "Ġac": 1445,
      "Ġlanguage": 1446,
      "svg": 1447,
      "Ġlook": 1448,
      "sing": 1449,
      "Ġ29": 1450,
      "Ġformat": 1451,
      "ĠNone": 1452,
      "Ġsolve": 1453,
      "ash": 1454,
      "itionally": 1455,
      "Ġcases": 1456,
      "idth": 1457,
      "29": 1458,
      "Ġ\"\"\"": 1459,
      "sed": 1460,
      "Ġreverse": 1461,
      "Ġ!=": 1462,
      "Ġfield": 1463,
      "Ġmulti": 1464,
      "Ġenc": 1465,
      "De": 1466,
      "itle": 1467,
      "min": 1468,
      "Ġnecess": 1469,
      "Ġav": 1470,
      "Ġ28": 1471,
      "Ġchang": 1472,
      "loye": 1473,
      "Ġmem": 1474,
      "Ġbinary": 1475,
      "Ġmost": 1476,
      "anced": 1477,
      "Ġroot": 1478,
      "Ġtechn": 1479,
      "ents": 1480,
      "Ġequal": 1481,
      "Ġright": 1482,
      "Ġcap": 1483,
      "Ġoperations": 1484,
      "sq": 1485,
      "head": 1486,
      "loat": 1487,
      "Ġvariable": 1488,
      "Ġposition": 1489,
      "27": 1490,
      "Ġmatrix": 1491,
      "da": 1492,
      "Data": 1493,
      "Ġpath": 1494,
      "ails": 1495,
      "ines": 1496,
      "member": 1497,
      "ten": 1498,
      "Ġaddition": 1499,
      "Ġapproach": 1500,
      "Ġserver": 1501,
      "='": 1502,
      "atch": 1503,
      "Ġlast": 1504,
      "Ġwithout": 1505,
      "01": 1506,
      "Ġlong": 1507,
      "ST": 1508,
      "ource": 1509,
      "Ġadv": 1510,
      "Ġempty": 1511,
      "Ġph": 1512,
      "verage": 1513,
      "Ġcolumn": 1514,
      "ma": 1515,
      "Ġdocument": 1516,
      "55": 1517,
      "ful": 1518,
      "Ġreplace": 1519,
      "ric": 1520,
      "mes": 1521,
      "Ġpat": 1522,
      "of": 1523,
      "Ġsearch": 1524,
      "Ġdoesn": 1525,
      "Ġfound": 1526,
      "Ġ100": 1527,
      "Ġkn": 1528,
      "mon": 1529,
      "ĠDe": 1530,
      "ĠData": 1531,
      "tc": 1532,
      "Ġmessage": 1533,
      "user": 1534,
      "Ġjust": 1535,
      "not": 1536,
      "Ġ27": 1537,
      "item": 1538,
      "df": 1539,
      "Ġind": 1540,
      "Ġcolor": 1541,
      "Ġbefore": 1542,
      "lection": 1543,
      "ody": 1544,
      "ault": 1545,
      "IN": 1546,
      "cy": 1547,
      "mpl": 1548,
      "plo": 1549,
      "position": 1550,
      "44": 1551,
      "Ġinstance": 1552,
      "Ġpres": 1553,
      "lock": 1554,
      "**:": 1555,
      "ton": 1556,
      "'re": 1557,
      "here": 1558,
      "inally": 1559,
      "33": 1560,
      "Ġsim": 1561,
      "Ġless": 1562,
      "clude": 1563,
      "Ġetc": 1564,
      "Ġrel": 1565,
      "Ġbuilt": 1566,
      "Ġsign": 1567,
      "Ġassum": 1568,
      "Ġprev": 1569,
      "Ġsuper": 1570,
      "ality": 1571,
      "Ġour": 1572,
      "Ġimplementation": 1573,
      "avas": 1574,
      "avascript": 1575,
      "cending": 1576,
      "oogle": 1577,
      "ool": 1578,
      "learn": 1579,
      "ead": 1580,
      "Ġterm": 1581,
      "lst": 1582,
      "ng": 1583,
      "Ġlearning": 1584,
      "Ġrecur": 1585,
      "ually": 1586,
      "Ġevery": 1587,
      "Ġlists": 1588,
      "Ġinformation": 1589,
      "Pro": 1590,
      "Ġtarget": 1591,
      "Ġsupport": 1592,
      "Ġneg": 1593,
      "...": 1594,
      "udent": 1595,
      "izing": 1596,
      "Ġvis": 1597,
      "ively": 1598,
      "Ġlower": 1599,
      "Ġsw": 1600,
      "ograph": 1601,
      "Ġlibraries": 1602,
      "Ġsure": 1603,
      "30": 1604,
      "uple": 1605,
      "rome": 1606,
      "Ġ</": 1607,
      "ift": 1608,
      "Ġtrue": 1609,
      "].": 1610,
      "vir": 1611,
      "Ġtri": 1612,
      "result": 1613,
      ">>": 1614,
      "Ġmaximum": 1615,
      "78": 1616,
      "work": 1617,
      "function": 1618,
      "vect": 1619,
      "LECT": 1620,
      "Ġinputs": 1621,
      "Ġfrequ": 1622,
      "sc": 1623,
      "gt": 1624,
      "Ġerrors": 1625,
      "Ġaccess": 1626,
      "Ġread": 1627,
      "Ġmean": 1628,
      "hed": 1629,
      "Ġcommon": 1630,
      "Ġcontains": 1631,
      "pen": 1632,
      "viron": 1633,
      "Ġodd": 1634,
      "ĠCSS": 1635,
      "Ġrec": 1636,
      "Ġnp": 1637,
      "Ġwhat": 1638,
      "=\"#": 1639,
      "ĠCl": 1640,
      "ynam": 1641,
      "Ġpair": 1642,
      "valid": 1643,
      "oc": 1644,
      "Ġafter": 1645,
      "urther": 1646,
      "comp": 1647,
      "Ġinvol": 1648,
      "Ġwas": 1649,
      "fe": 1650,
      "gest": 1651,
      "21": 1652,
      "file": 1653,
      "Ġdisplay": 1654,
      "ROM": 1655,
      "Ġgreat": 1656,
      "fer": 1657,
      "oin": 1658,
      "abel": 1659,
      "Ġleft": 1660,
      "ware": 1661,
      "Ġ->": 1662,
      "\");": 1663,
      "Ġexpres": 1664,
      "Ġheight": 1665,
      "Ġtool": 1666,
      "oud": 1667,
      "];": 1668,
      "edian": 1669,
      "Ġlimit": 1670,
      "Ġed": 1671,
      "Ġtakes": 1672,
      "ross": 1673,
      "Ġag": 1674,
      "ategor": 1675,
      "ification": 1676,
      "Ġspace": 1677,
      "Ġcur": 1678,
      "Ġdevelop": 1679,
      "lean": 1680,
      "ia": 1681,
      "Ġbelow": 1682,
      "pected": 1683,
      "ced": 1684,
      "Ġincor": 1685,
      "Ġselect": 1686,
      "etwork": 1687,
      "Ġdate": 1688,
      "ĠSystem": 1689,
      "number": 1690,
      "other": 1691,
      "by": 1692,
      "element": 1693,
      "88": 1694,
      "side": 1695,
      "load": 1696,
      "Ġexpl": 1697,
      "ron": 1698,
      "Ġnegative": 1699,
      "imes": 1700,
      "ences": 1701,
      "Ġhelp": 1702,
      "ately": 1703,
      "Ġbas": 1704,
      "Array": 1705,
      "sis": 1706,
      "omet": 1707,
      "sw": 1708,
      "ĠAdditionally": 1709,
      "ĠList": 1710,
      "ters": 1711,
      "66": 1712,
      "())": 1713,
      "Cl": 1714,
      "Ġthree": 1715,
      "Ġgenerate": 1716,
      "Ch": 1717,
      "Ġrequired": 1718,
      "Ġfalse": 1719,
      "Ġke": 1720,
      "mb": 1721,
      "50": 1722,
      "imension": 1723,
      "Ġproject": 1724,
      "----------------": 1725,
      "tical": 1726,
      "Ġnames": 1727,
      "alindrome": 1728,
      "Ġpositive": 1729,
      "andard": 1730,
      "AT": 1731,
      "aces": 1732,
      "yle": 1733,
      "ĠAn": 1734,
      "Ġ<<": 1735,
      "Ġstd": 1736,
      "Ġcompre": 1737,
      "Ġlay": 1738,
      "ĠString": 1739,
      "ested": 1740,
      "Ġmak": 1741,
      "ples": 1742,
      "Ġfeatures": 1743,
      "oss": 1744,
      "Ġyear": 1745,
      "ĠThen": 1746,
      "ello": 1747,
      "SQL": 1748,
      "Ġfl": 1749,
      "ipp": 1750,
      "Ġalph": 1751,
      "Ġsing": 1752,
      "indow": 1753,
      "Input": 1754,
      "Ġcomputing": 1755,
      "words": 1756,
      "Ġenviron": 1757,
      "ĠAlso": 1758,
      "Ġstatic": 1759,
      "AR": 1760,
      "abet": 1761,
      "Int": 1762,
      "ward": 1763,
      "]]": 1764,
      "ered": 1765,
      "Ġmaint": 1766,
      "Num": 1767,
      "Ġabout": 1768,
      "Ġadj": 1769,
      "vector": 1770,
      "Ġcomb": 1771,
      "ression": 1772,
      "roup": 1773,
      "Ġfactor": 1774,
      "Ġ\\": 1775,
      "olog": 1776,
      "Ġwell": 1777,
      "Ġnext": 1778,
      "rol": 1779,
      "Note": 1780,
      "face": 1781,
      "Ġtransform": 1782,
      "Ġlink": 1783,
      "79": 1784,
      "ger": 1785,
      "round": 1786,
      "54": 1787,
      "ception": 1788,
      "If": 1789,
      "Ġdepend": 1790,
      "Ġ32": 1791,
      "Ġactual": 1792,
      "Ġable": 1793,
      "Ġworks": 1794,
      "javascript": 1795,
      "px": 1796,
      "Ġgu": 1797,
      "WS": 1798,
      "gn": 1799,
      "RL": 1800,
      "Ġca": 1801,
      "[]": 1802,
      "Ġerr": 1803,
      "inst": 1804,
      "Ġmanage": 1805,
      "ID": 1806,
      "Ġcontin": 1807,
      "split": 1808,
      "Ġkeep": 1809,
      "Ġattrib": 1810,
      "ern": 1811,
      "Ġtree": 1812,
      "fit": 1813,
      "Ġload": 1814,
      "Ġdue": 1815,
      "ramework": 1816,
      "over": 1817,
      "Ġdeterm": 1818,
      "ature": 1819,
      "ET": 1820,
      "76": 1821,
      "ince": 1822,
      "Ġutil": 1823,
      "ording": 1824,
      "Ġwhether": 1825,
      "Ġzero": 1826,
      "Ġelif": 1827,
      "Ġpython": 1828,
      "Ġmon": 1829,
      "respon": 1830,
      "chan": 1831,
      "\";": 1832,
      "Ġmodels": 1833,
      "Ġsklearn": 1834,
      "ype": 1835,
      "tt": 1836,
      "Ġentang": 1837,
      "++)": 1838,
      "Ġinf": 1839,
      "Ġsepar": 1840,
      "},": 1841,
      "It": 1842,
      "Ġnecessary": 1843,
      "ateg": 1844,
      "Ġintegr": 1845,
      "uplic": 1846,
      "vers": 1847,
      "Ġconstruct": 1848,
      "gre": 1849,
      "Ġsteps": 1850,
      "Ġtypes": 1851,
      "86": 1852,
      "Ġsquare": 1853,
      "Ġinstall": 1854,
      "find": 1855,
      "04": 1856,
      "ken": 1857,
      "Ġidentify": 1858,
      "As": 1859,
      "Ġparameters": 1860,
      ".,": 1861,
      "Ġpartic": 1862,
      "table": 1863,
      "odes": 1864,
      "Hello": 1865,
      "Ġchange": 1866,
      "ational": 1867,
      "Ġchanges": 1868,
      "Ġwidth": 1869,
      "less": 1870,
      "SELECT": 1871,
      "valu": 1872,
      "amb": 1873,
      "Id": 1874,
      "Ġaccount": 1875,
      "fil": 1876,
      "ĠOutput": 1877,
      "inct": 1878,
      "cont": 1879,
      "ĠFibonacci": 1880,
      "start": 1881,
      "Ġargument": 1882,
      "oneous": 1883,
      "url": 1884,
      "ouble": 1885,
      "body": 1886,
      "ough": 1887,
      "Ġaddress": 1888,
      "curity": 1889,
      "Ġdivis": 1890,
      "74": 1891,
      "node": 1892,
      "Ġimage": 1893,
      "Ġbre": 1894,
      "Ġanother": 1895,
      "Ġvariables": 1896,
      "Ġwrite": 1897,
      "Ġcorrespon": 1898,
      "Create": 1899,
      "sive": 1900,
      "Ġmach": 1901,
      "ĠInt": 1902,
      "Ġfiles": 1903,
      "nect": 1904,
      "Ġdistrib": 1905,
      "Ġvoid": 1906,
      "next": 1907,
      "Ġneeds": 1908,
      "Ġmis": 1909,
      "hat": 1910,
      "istic": 1911,
      "True": 1912,
      "erson": 1913,
      "aining": 1914,
      "84": 1915,
      "nums": 1916,
      "Ġass": 1917,
      "36": 1918,
      "Ġbeing": 1919,
      "eger": 1920,
      "Ġview": 1921,
      "ura": 1922,
      "ln": 1923,
      "Ġbeen": 1924,
      "():": 1925,
      "Ġdigits": 1926,
      "plot": 1927,
      "point": 1928,
      "Ġrequirements": 1929,
      "Ġexpression": 1930,
      "Ġcompon": 1931,
      "olum": 1932,
      "06": 1933,
      "olution": 1934,
      "Ġbasic": 1935,
      "ream": 1936,
      "ĠAS": 1937,
      ")`": 1938,
      "Ġaverage": 1939,
      "Ġenvironment": 1940,
      "Ġ__": 1941,
      "ways": 1942,
      "io": 1943,
      "Ġsn": 1944,
      "uture": 1945,
      "ilar": 1946,
      "Ġvow": 1947,
      "ĠNode": 1948,
      "son": 1949,
      "Des": 1950,
      "new": 1951,
      "Ġremove": 1952,
      "ccess": 1953,
      "we": 1954,
      "Develop": 1955,
      "ĠAWS": 1956,
      "Ġchall": 1957,
      "Ġtraining": 1958,
      "Ġlst": 1959,
      "Ġmechan": 1960,
      "vices": 1961,
      "lish": 1962,
      "lower": 1963,
      "sequence": 1964,
      "Ġduplic": 1965,
      "sql": 1966,
      "Ġsingle": 1967,
      "include": 1968,
      "Ġtemp": 1969,
      "left": 1970,
      "Ġaccording": 1971,
      "Ġvar": 1972,
      "Ġmemory": 1973,
      "ambda": 1974,
      "ĠCheck": 1975,
      "ious": 1976,
      "Ġimpro": 1977,
      "Element": 1978,
      "chie": 1979,
      "Ġfilter": 1980,
      "85": 1981,
      "Ġstrateg": 1982,
      "100": 1983,
      "Ġbuild": 1984,
      "Ġarrays": 1985,
      "Ġstack": 1986,
      "Ġspecified": 1987,
      "Ġfeature": 1988,
      "ertain": 1989,
      "ERE": 1990,
      "oring": 1991,
      "ances": 1992,
      "Ġdirectly": 1993,
      "nces": 1994,
      "Ġfloat": 1995,
      "Ġspecial": 1996,
      "Ġachie": 1997,
      "Ġissu": 1998,
      "ryptograph": 1999,
      "oh": 2000,
      ")]": 2001,
      "Ġsecurity": 2002,
      "Ġmachine": 2003,
      "Write": 2004,
      "ape": 2005,
      "Ġtake": 2006,
      "Ġpage": 2007,
      ":**": 2008,
      "((": 2009,
      "Ġage": 2010,
      "ock": 2011,
      "Ġincluding": 2012,
      "Ġpattern": 2013,
      "etter": 2014,
      "izer": 2015,
      "Ġlevel": 2016,
      "Ġcreating": 2017,
      "Ġsuperposition": 2018,
      "wise": 2019,
      "ference": 2020,
      "Ġadjust": 2021,
      "Ġmatch": 2022,
      "rt": 2023,
      "Ġquest": 2024,
      "Ġconsole": 2025,
      "umer": 2026,
      "Ġnull": 2027,
      "nection": 2028,
      "Ġrequi": 2029,
      "ĠUse": 2030,
      "ĠAs": 2031,
      "ĠUn": 2032,
      "utes": 2033,
      "ensor": 2034,
      "Ġoff": 2035,
      "Ġupd": 2036,
      "Remember": 2037,
      "Ġentanglement": 2038,
      "Ġissues": 2039,
      "DB": 2040,
      "http": 2041,
      "Ġcorrectly": 2042,
      "cle": 2043,
      "Ġnetwork": 2044,
      "Ġfrequency": 2045,
      "ĠGoogle": 2046,
      "Ġknow": 2047,
      "NT": 2048,
      "Ġcalculates": 2049,
      "Ġoccurre": 2050,
      "sol": 2051,
      "');": 2052,
      "Ġunderstanding": 2053,
      "ippet": 2054,
      "public": 2055,
      "Ġstandard": 2056,
      "process": 2057,
      "ural": 2058,
      "Ġcolumns": 2059,
      "enari": 2060,
      "map": 2061,
      "ging": 2062,
      "Ġappropri": 2063,
      "Ġdigit": 2064,
      "Ġdynam": 2065,
      "Ġref": 2066,
      "bu": 2067,
      "Ġ['": 2068,
      "Ġtop": 2069,
      "based": 2070,
      "SON": 2071,
      "Ġusers": 2072,
      "Ġemail": 2073,
      "HERE": 2074,
      "Ġframework": 2075,
      "ĠTest": 2076,
      "));": 2077,
      "]:": 2078,
      "Ġkeys": 2079,
      "Ġfuture": 2080,
      "ulation": 2081,
      "($": 2082,
      "Ġmeans": 2083,
      "Ġpassword": 2084,
      "Ġvery": 2085,
      "ives": 2086,
      "Ġbreak": 2087,
      "35": 2088,
      "mit": 2089,
      "Ġfib": 2090,
      "Ġbest": 2091,
      "Ġupper": 2092,
      "Ġdistinct": 2093,
      "title": 2094,
      "alance": 2095,
      "Ġmany": 2096,
      "andas": 2097,
      "Ġerroneous": 2098,
      "OR": 2099,
      "trans": 2100,
      "wh": 2101,
      "Ġprovides": 2102,
      "Ġsnippet": 2103,
      "âĢĻ": 2104,
      "Ġanalysis": 2105,
      "por": 2106,
      "type": 2107,
      "Ġeas": 2108,
      "09": 2109,
      "Ġdown": 2110,
      "ĠCreate": 2111,
      "Ġ--": 2112,
      "uracy": 2113,
      "Ġ@": 2114,
      "itu": 2115,
      "Ġcryptograph": 2116,
      "ĠCh": 2117,
      "05": 2118,
      "idd": 2119,
      "Ġ_": 2120,
      "ches": 2121,
      "';": 2122,
      "https": 2123,
      "Ġconfig": 2124,
      "Ġrespect": 2125,
      "like": 2126,
      "ploy": 2127,
      "idual": 2128,
      "Ġfollows": 2129,
      "Count": 2130,
      "Ġinstead": 2131,
      "init": 2132,
      "Ġconc": 2133,
      "Ġtheore": 2134,
      "matrix": 2135,
      "dule": 2136,
      "Ġleast": 2137,
      "Ġpresent": 2138,
      "hing": 2139,
      "Example": 2140,
      "angle": 2141,
      "Ġscenari": 2142,
      "instance": 2143,
      "etch": 2144,
      "Ġrunning": 2145,
      "Ġnumerical": 2146,
      "ks": 2147,
      "ĠSo": 2148,
      "Ġpract": 2149,
      "Ġgreater": 2150,
      "arent": 2151,
      "root": 2152,
      "aut": 2153,
      "Ġnested": 2154,
      "ĠValue": 2155,
      "otal": 2156,
      "Ġhead": 2157,
      "Ġprints": 2158,
      "ason": 2159,
      "07": 2160,
      "back": 2161,
      "ĠURL": 2162,
      "Ġblock": 2163,
      "Ġrows": 2164,
      "code": 2165,
      "Ġlead": 2166,
      "rel": 2167,
      "ohn": 2168,
      "We": 2169,
      "->": 2170,
      "duce": 2171,
      "Ġremo": 2172,
      "loyee": 2173,
      "Ġbetter": 2174,
      "order": 2175,
      "Ġdf": 2176,
      "Ġcontrol": 2177,
      "action": 2178,
      "ĠSer": 2179,
      "Ġ[[": 2180,
      "emp": 2181,
      "Ġpass": 2182,
      "Ġregular": 2183,
      "ins": 2184,
      "ention": 2185,
      "Ġpd": 2186,
      "using": 2187,
      "unc": 2188,
      "dig": 2189,
      "script": 2190,
      "Ġincludes": 2191,
      "pr": 2192,
      "Ġtag": 2193,
      "Ġcorresponding": 2194,
      "Ġquestion": 2195,
      "Ġstatement": 2196,
      "ival": 2197,
      "pose": 2198,
      "'m": 2199,
      "rop": 2200,
      "wn": 2201,
      "org": 2202,
      "Ġtimes": 2203,
      "dep": 2204,
      "www": 2205,
      "ired": 2206,
      "Ġdefault": 2207,
      "Ġadditional": 2208,
      "ormal": 2209,
      "ĠQu": 2210,
      "ĠThere": 2211,
      "temp": 2212,
      "ulate": 2213,
      "Ġrequires": 2214,
      "'ll": 2215,
      "Ġexact": 2216,
      "Ġamount": 2217,
      "Ġpriv": 2218,
      "Ġmedian": 2219,
      "Ġprec": 2220,
      "ici": 2221,
      "Ġallows": 2222,
      "By": 2223,
      "ully": 2224,
      "ted": 2225,
      "Ġsentence": 2226,
      "ĠYour": 2227,
      "Ġthose": 2228,
      "Ġmodify": 2229,
      "ither": 2230,
      "94": 2231,
      "unct": 2232,
      "flow": 2233,
      "Ġcalled": 2234,
      "Ġsorting": 2235,
      "Ġresponse": 2236,
      "Ġsignific": 2237,
      "ready": 2238,
      "your": 2239,
      "Ġpack": 2240,
      "Ġsee": 2241,
      "Ġmer": 2242,
      "Ġweight": 2243,
      "Output": 2244,
      "values": 2245,
      "ination": 2246,
      "__(": 2247,
      "Ġsmallest": 2248,
      "product": 2249,
      "Ġopen": 2250,
      "color": 2251,
      "Ġmark": 2252,
      "ĠJSON": 2253,
      "uration": 2254,
      "ache": 2255,
      "\"]": 2256,
      "Ġindiv": 2257,
      "ND": 2258,
      "Ġprocessing": 2259,
      "Ġmodule": 2260,
      "Ġadvanced": 2261,
      "atic": 2262,
      "Ġfunctionality": 2263,
      "raint": 2264,
      "Ġchecking": 2265,
      "const": 2266,
      "ĠAr": 2267,
      "Ġclient": 2268,
      "iled": 2269,
      "Ġtuple": 2270,
      "Ġ200": 2271,
      "lay": 2272,
      "orch": 2273,
      "peed": 2274,
      "Ġdone": 2275,
      "Ġupdate": 2276,
      "38": 2277,
      "ession": 2278,
      "come": 2279,
      "ared": 2280,
      "ibility": 2281,
      "ĠTo": 2282,
      "fig": 2283,
      "eturn": 2284,
      "Ġnodes": 2285,
      "ication": 2286,
      "Ġunt": 2287,
      "Ġpredict": 2288,
      "lob": 2289,
      "Ġ[\"": 2290,
      "Ġthrow": 2291,
      "96": 2292,
      "izes": 2293,
      "pace": 2294,
      "ilities": 2295,
      "ĠComp": 2296,
      "omain": 2297,
      "Ġcategor": 2298,
      "Ġadded": 2299,
      "view": 2300,
      "Ġalways": 2301,
      "Ġ>>>": 2302,
      "Ġraise": 2303,
      "Ġrecord": 2304,
      "sequ": 2305,
      "Ġaccept": 2306,
      "ground": 2307,
      "Ġalphabet": 2308,
      "Ġsimilar": 2309,
      "opt": 2310,
      "Ġscal": 2311,
      "orage": 2312,
      "ey": 2313,
      "().": 2314,
      "aps": 2315,
      "strings": 2316,
      "Ġapply": 2317,
      "Ġwho": 2318,
      "02": 2319,
      "Ġitems": 2320,
      "Ġcertain": 2321,
      "ily": 2322,
      "println": 2323,
      "Ġpoints": 2324,
      "Ġarea": 2325,
      "Ġgraph": 2326,
      "join": 2327,
      "score": 2328,
      "search": 2329,
      "Ġcontent": 2330,
      "query": 2331,
      "Ġappropriate": 2332,
      "Ġfinal": 2333,
      "ifier": 2334,
      "ont": 2335,
      "Ġcontext": 2336,
      "mis": 2337,
      "ties": 2338,
      "uted": 2339,
      "Ġbeh": 2340,
      "Ġsystems": 2341,
      "Ġpandas": 2342,
      "ird": 2343,
      "Ġtesting": 2344,
      "ĠValueError": 2345,
      "Ġpur": 2346,
      "Ġuntil": 2347,
      "ĠCloud": 2348,
      "However": 2349,
      "ftware": 2350,
      "Ġtheoretical": 2351,
      "Ġ\",": 2352,
      "Ġequival": 2353,
      "Ġavail": 2354,
      "'))": 2355,
      "Ġnums": 2356,
      "]))": 2357,
      "json": 2358,
      "ush": 2359,
      "peri": 2360,
      "Ġdefined": 2361,
      "Se": 2362,
      "98": 2363,
      "LL": 2364,
      "lex": 2365,
      "itect": 2366,
      "Ġextract": 2367,
      "ane": 2368,
      "Ġpie": 2369,
      "anation": 2370,
      "Ġgood": 2371,
      "Ġevalu": 2372,
      "Ġdefine": 2373,
      "Ġthread": 2374,
      "Ġinsert": 2375,
      "Ġalready": 2376,
      "dio": 2377,
      "Ġservice": 2378,
      "Add": 2379,
      "bug": 2380,
      "clus": 2381,
      "Ġagain": 2382,
      "Ġappear": 2383,
      ".\"": 2384,
      "Ġshow": 2385,
      "Ġconditions": 2386,
      "Ġanim": 2387,
      "elow": 2388,
      "iciency": 2389,
      "Ġprob": 2390,
      "als": 2391,
      "label": 2392,
      "abels": 2393,
      "ings": 2394,
      "chitect": 2395,
      "Ġnumpy": 2396,
      "Ġcompar": 2397,
      "Ġrob": 2398,
      "error": 2399,
      "Ġvisual": 2400,
      "Ġpower": 2401,
      "ale": 2402,
      "|:": 2403,
      "Ġindividual": 2404,
      "Ġretri": 2405,
      "Ġsimp": 2406,
      "hor": 2407,
      "lete": 2408,
      "Ġloc": 2409,
      "Ġ{}": 2410,
      "do": 2411,
      "Ġwrit": 2412,
      "more": 2413,
      "Ġbl": 2414,
      "Ġexception": 2415,
      "Ġprin": 2416,
      "Ġbrow": 2417,
      "ceed": 2418,
      "Ġautom": 2419,
      "alary": 2420,
      "met": 2421,
      "Ġtasks": 2422,
      "Ġdon": 2423,
      "db": 2424,
      "Ġ>=": 2425,
      "45": 2426,
      "Ġcorrected": 2427,
      "'ve": 2428,
      "Ġincorpor": 2429,
      "Sure": 2430,
      "ms": 2431,
      "req": 2432,
      "Ġexpected": 2433,
      "Ġsetting": 2434,
      "Ġsignificant": 2435,
      "Ġconv": 2436,
      "Ġobjects": 2437,
      "Given": 2438,
      "Ġadding": 2439,
      "Ġpop": 2440,
      "ĠApp": 2441,
      "arg": 2442,
      ")):": 2443,
      "plt": 2444,
      "Ġsynt": 2445,
      "Ġparticular": 2446,
      "08": 2447,
      "46": 2448,
      "03": 2449,
      "var": 2450,
      "ources": 2451,
      "mod": 2452,
      "Ġsets": 2453,
      "the": 2454,
      "Ġalong": 2455,
      "dec": 2456,
      "aging": 2457,
      "Cont": 2458,
      "ailed": 2459,
      "Ġmanip": 2460,
      "Ġequivalent": 2461,
      "Ġdp": 2462,
      "igh": 2463,
      "ĠMy": 2464,
      "Ġvalidation": 2465,
      "iques": 2466,
      "unctu": 2467,
      "cd": 2468,
      "password": 2469,
      "Ġduring": 2470,
      "Ġcannot": 2471,
      "Ġprimes": 2472,
      "Ġrat": 2473,
      "95": 2474,
      "Ġmath": 2475,
      "Ġansw": 2476,
      "utton": 2477,
      "eue": 2478,
      "icro": 2479,
      "Ġgive": 2480,
      "ret": 2481,
      "Ġseries": 2482,
      "){": 2483,
      "(),": 2484,
      "encies": 2485,
      "Ġrot": 2486,
      "Ġsur": 2487,
      "oad": 2488,
      "Ġparameter": 2489,
      "Ġrequests": 2490,
      "fix": 2491,
      "Ġexp": 2492,
      "hell": 2493,
      "Node": 2494,
      "When": 2495,
      "console": 2496,
      "dient": 2497,
      "check": 2498,
      "elements": 2499,
      "ides": 2500,
      "Ġcompute": 2501,
      "mbol": 2502,
      "cent": 2503,
      "atform": 2504,
      "Design": 2505,
      "ously": 2506,
      "tr": 2507,
      "loyees": 2508,
      "First": 2509,
      "An": 2510,
      "lib": 2511,
      "ended": 2512,
      "ze": 2513,
      "Ġstudent": 2514,
      "comm": 2515,
      "bed": 2516,
      "java": 2517,
      "ank": 2518,
      "Ġdetails": 2519,
      "Ġminimum": 2520,
      "Ġavailable": 2521,
      "ATE": 2522,
      "Ġcontinu": 2523,
      "fact": 2524,
      "Ġevent": 2525,
      "Ġreason": 2526,
      "Ġ50": 2527,
      "Ġitself": 2528,
      "culate": 2529,
      "Ġsuccess": 2530,
      "urthermore": 2531,
      "Ġeither": 2532,
      "Ġmeas": 2533,
      "apt": 2534,
      "Ġfactors": 2535,
      "\"))": 2536,
      "ded": 2537,
      "Ġcost": 2538,
      "Ġcomprehe": 2539,
      "ĠAfter": 2540,
      "cription": 2541,
      "ifies": 2542,
      "Un": 2543,
      "Ġhy": 2544,
      "Value": 2545,
      "ries": 2546,
      "Ġmaintain": 2547,
      "Ġlocal": 2548,
      "Ġtransl": 2549,
      "Ġgroup": 2550,
      "Ġlogic": 2551,
      "Ġconsist": 2552,
      "Ġsince": 2553,
      "Ġvarious": 2554,
      "Ġrobust": 2555,
      "amples": 2556,
      "Ġinvolves": 2557,
      "ĠCould": 2558,
      "Ġlarger": 2559,
      "with": 2560,
      "Ġsomet": 2561,
      "$.": 2562,
      "ond": 2563,
      "eff": 2564,
      "Ġrepe": 2565,
      "td": 2566,
      "ĠFl": 2567,
      "sue": 2568,
      "Ġprice": 2569,
      "ules": 2570,
      "Ġcent": 2571,
      "Ġconnection": 2572,
      "Class": 2573,
      "Comp": 2574,
      "ier": 2575,
      "Ġascending": 2576,
      "ior": 2577,
      "Ġoption": 2578,
      "Ġlat": 2579,
      "Ġoperator": 2580,
      "Ġsoftware": 2581,
      "raints": 2582,
      "hest": 2583,
      "cure": 2584,
      "Ġarchitect": 2585,
      "artment": 2586,
      "Ġmissing": 2587,
      "Ġvowels": 2588,
      "FROM": 2589,
      "Ġdouble": 2590,
      "Ġsimpl": 2591,
      "Ġintric": 2592,
      "sent": 2593,
      "Ġissue": 2594,
      "Ġfactorial": 2595,
      "Python": 2596,
      "Ġcounts": 2597,
      "Ġplace": 2598,
      "Ġbook": 2599,
      "Ġsever": 2600,
      "Ġtechniques": 2601,
      "Ġisinstance": 2602,
      "Ġindic": 2603,
      "Ġdeploy": 2604,
      "Ġfix": 2605,
      "Ġchalleng": 2606,
      "0000": 2607,
      "unctuation": 2608,
      "Ġlongest": 2609,
      "Ġnow": 2610,
      "HP": 2611,
      "Ġimportant": 2612,
      "Ġ{'": 2613,
      "Ġcommun": 2614,
      "Ġ(`": 2615,
      "ĠBY": 2616,
      "Ġenh": 2617,
      "Ġterms": 2618,
      "Ġdistribution": 2619,
      "ana": 2620,
      "lose": 2621,
      "37": 2622,
      "aw": 2623,
      "sorted": 2624,
      "Ġcreated": 2625,
      "Ġsplit": 2626,
      "Ġanswer": 2627,
      "Ġcomputational": 2628,
      "Ġavoid": 2629,
      "Your": 2630,
      "uc": 2631,
      "Ġincrease": 2632,
      "main": 2633,
      "alph": 2634,
      "Ġindices": 2635,
      "Ġletter": 2636,
      "Ġsche": 2637,
      "Ġsyntax": 2638,
      "oice": 2639,
      "ĠPer": 2640,
      "raw": 2641,
      "Ġnamed": 2642,
      "Form": 2643,
      "ĠDef": 2644,
      "fib": 2645,
      "Ġdeep": 2646,
      "Ġdetermine": 2647,
      "Ġlow": 2648,
      "67": 2649,
      "Ġseveral": 2650,
      "Ġcryptography": 2651,
      "light": 2652,
      "Ġver": 2653,
      "rics": 2654,
      "Ġedge": 2655,
      "Ġdecimal": 2656,
      "Ġfru": 2657,
      "ov": 2658,
      "Ġcreates": 2659,
      "ares": 2660,
      "Ġstarting": 2661,
      "bject": 2662,
      "ĠFROM": 2663,
      "Ġconcept": 2664,
      "ense": 2665,
      "email": 2666,
      "Ġcomprehens": 2667,
      "[-": 2668,
      "Ġachieve": 2669,
      "Ġ||": 2670,
      "Ġaccuracy": 2671,
      "oDB": 2672,
      "RE": 2673,
      "Ġprivate": 2674,
      "Ġstill": 2675,
      "};": 2676,
      "Ġspeed": 2677,
      "Ġletters": 2678,
      "Ġvalidate": 2679,
      "Ġcir": 2680,
      "Ġtrack": 2681,
      "imensional": 2682,
      "Ġ&&": 2683,
      "Ġvector": 2684,
      "Ġrespon": 2685,
      "ged": 2686,
      "Ġlowercase": 2687,
      "Box": 2688,
      "Ġdifference": 2689,
      "TP": 2690,
      "ets": 2691,
      "aving": 2692,
      "Ġneeded": 2693,
      "Also": 2694,
      "So": 2695,
      "mary": 2696,
      "Ġproperties": 2697,
      "Ġdescending": 2698,
      "Pri": 2699,
      "31": 2700,
      "Ġest": 2701,
      "Ġapplications": 2702,
      "po": 2703,
      "ĠPlease": 2704,
      "Ġattribute": 2705,
      "ĠSe": 2706,
      "pecial": 2707,
      "Ġexceptions": 2708,
      "Ġrecursive": 2709,
      "mut": 2710,
      "Ġonce": 2711,
      "Ġprevious": 2712,
      "Ġstored": 2713,
      "Ġbalance": 2714,
      "Ent": 2715,
      "Ġefficiency": 2716,
      "Ġalgorithms": 2717,
      "sp": 2718,
      "Ġencrypt": 2719,
      "eries": 2720,
      ".\")": 2721,
      "style": 2722,
      "Ġsequ": 2723,
      "Ġmind": 2724,
      "Ġpiece": 2725,
      "ently": 2726,
      "Ġaccur": 2727,
      "target": 2728,
      "Ġtables": 2729,
      "Ġproced": 2730,
      "cus": 2731,
      "ys": 2732,
      "Ġtools": 2733,
      "ĠAl": 2734,
      "site": 2735,
      "97": 2736,
      "Ġgrid": 2737,
      "]`": 2738,
      "filter": 2739,
      "ensitive": 2740,
      "Ġfields": 2741,
      "Ġcomprehensive": 2742,
      "Ġdevelopment": 2743,
      "Ġpredi": 2744,
      "Ġoccur": 2745,
      "ĠFunction": 2746,
      "this": 2747,
      "Ġlinear": 2748,
      "Ġpost": 2749,
      "Ġpalindrome": 2750,
      "Ġrect": 2751,
      "lections": 2752,
      "fect": 2753,
      "br": 2754,
      "etime": 2755,
      "ĠBe": 2756,
      "Ġjava": 2757,
      "Ġreturned": 2758,
      "ses": 2759,
      "Ġmade": 2760,
      "uster": 2761,
      "ĠWhen": 2762,
      "Ġdistance": 2763,
      "Ġstrategies": 2764,
      "ited": 2765,
      "ining": 2766,
      "part": 2767,
      "],[": 2768,
      "sider": 2769,
      "Ġinteract": 2770,
      "ĠPHP": 2771,
      "ends": 2772,
      "Ġusage": 2773,
      "even": 2774,
      "asing": 2775,
      "format": 2776,
      "hold": 2777,
      "$,": 2778,
      "abilities": 2779,
      "ian": 2780,
      "be": 2781,
      "ango": 2782,
      "Ġbit": 2783,
      "ivity": 2784,
      "Ġmaking": 2785,
      "Ġsample": 2786,
      "Ġassign": 2787,
      "Ġimprove": 2788,
      "Ġensuring": 2789,
      "mer": 2790,
      "items": 2791,
      "random": 2792,
      "Ġstop": 2793,
      "Ġris": 2794,
      "raction": 2795,
      "Number": 2796,
      "Ġround": 2797,
      "day": 2798,
      "Ġclasses": 2799,
      "Date": 2800,
      "ts": 2801,
      "Ġ},": 2802,
      "OU": 2803,
      "ĠFinally": 2804,
      "Ġworking": 2805,
      "Ġscore": 2806,
      "Ġcomponent": 2807,
      "Ġlinked": 2808,
      "af": 2809,
      "Ġ...": 2810,
      "59": 2811,
      "Ġimpact": 2812,
      "hemat": 2813,
      "Step": 2814,
      "ĠID": 2815,
      "Exception": 2816,
      "uch": 2817,
      "AB": 2818,
      "Ġown": 2819,
      "Ġcell": 2820,
      "Ġbutton": 2821,
      "ven": 2822,
      "ness": 2823,
      "acity": 2824,
      "Ġclean": 2825,
      "Ġeng": 2826,
      "Ġinterface": 2827,
      "Ġhex": 2828,
      "ud": 2829,
      "Ġrate": 2830,
      "87": 2831,
      "ifically": 2832,
      "level": 2833,
      "Ġconsidering": 2834,
      "Ġide": 2835,
      "book": 2836,
      "fo": 2837,
      "John": 2838,
      "ĠSet": 2839,
      "Ġsecure": 2840,
      "colum": 2841,
      "atetime": 2842,
      "Ġport": 2843,
      "ants": 2844,
      "std": 2845,
      "Ġheap": 2846,
      "Ġmakes": 2847,
      "IM": 2848,
      "Construct": 2849,
      "Ġproperty": 2850,
      "mission": 2851,
      "Ġdynamic": 2852,
      "ĠTh": 2853,
      "roll": 2854,
      "ĠNe": 2855,
      "earch": 2856,
      "csv": 2857,
      "Ġdirectory": 2858,
      "ĠAI": 2859,
      "Sum": 2860,
      "Or": 2861,
      "ik": 2862,
      "Ġsolutions": 2863,
      "ĠReturn": 2864,
      "Ġreversed": 2865,
      "Ġseparate": 2866,
      "Ġbackground": 2867,
      "Ġacross": 2868,
      "Ġrepresents": 2869,
      "ĠWorld": 2870,
      "Ġsubt": 2871,
      "Sub": 2872,
      "({": 2873,
      "Ġthird": 2874,
      "eras": 2875,
      "Al": 2876,
      "Ġdepending": 2877,
      "ĠCount": 2878,
      "Ġcomplete": 2879,
      "ĠError": 2880,
      "Ġtrying": 2881,
      "Ġdiff": 2882,
      "vent": 2883,
      "Ġexecution": 2884,
      "Ġpairs": 2885,
      "Ġsomething": 2886,
      "reverse": 2887,
      "Ġexperi": 2888,
      "man": 2889,
      "oreover": 2890,
      "65": 2891,
      "avig": 2892,
      "Ġstates": 2893,
      "Ġloss": 2894,
      "Time": 2895,
      "Ġxml": 2896,
      "func": 2897,
      "Ġmap": 2898,
      "Ġgeneral": 2899,
      "lis": 2900,
      "Ġfetch": 2901,
      "lu": 2902,
      "udio": 2903,
      "Ġlanguages": 2904,
      "NET": 2905,
      "Ġbehav": 2906,
      "erest": 2907,
      "Ġsymbol": 2908,
      "first": 2909,
      "999": 2910,
      "step": 2911,
      "Ġfull": 2912,
      "Ġoften": 2913,
      "Ġbot": 2914,
      "Ġparent": 2915,
      "ĠImplement": 2916,
      "ĠFurthermore": 2917,
      "Ġconnect": 2918,
      ";/": 2919,
      "ren": 2920,
      "Ġlayer": 2921,
      "Of": 2922,
      "Ġhash": 2923,
      "ĠSh": 2924,
      "ef": 2925,
      "Text": 2926,
      "fully": 2927,
      "ĠCal": 2928,
      "ĠThese": 2929,
      "Ġpo": 2930,
      "---": 2931,
      "Expl": 2932,
      "ores": 2933,
      "iddle": 2934,
      "Ġlargest": 2935,
      "olume": 2936,
      "total": 2937,
      "down": 2938,
      "Ġquick": 2939,
      "dis": 2940,
      "Ġcontaining": 2941,
      "bo": 2942,
      "rl": 2943,
      "Ġrest": 2944,
      "ffect": 2945,
      "oup": 2946,
      "Ġ```": 2947,
      "Ġresources": 2948,
      "Ġdesigned": 2949,
      "css": 2950,
      "ĠArray": 2951,
      "'],": 2952,
      "Ġes": 2953,
      "ĠDo": 2954,
      "net": 2955,
      "Ġplatform": 2956,
      "ories": 2957,
      "Ġdimension": 2958,
      "Ġmathemat": 2959,
      "Ġfew": 2960,
      "dataset": 2961,
      "Ġprof": 2962,
      "uples": 2963,
      "indows": 2964,
      "reg": 2965,
      "==": 2966,
      "WHERE": 2967,
      "hension": 2968,
      ";=": 2969,
      "Ġhold": 2970,
      "Ġspaces": 2971,
      "example": 2972,
      "Ġisn": 2973,
      "Set": 2974,
      "Ġplay": 2975,
      "Char": 2976,
      "Ġdebug": 2977,
      "page": 2978,
      "ek": 2979,
      "ains": 2980,
      "oose": 2981,
      "Ġclick": 2982,
      "Ġdeal": 2983,
      "ref": 2984,
      "Th": 2985,
      "ĠUser": 2986,
      "Ġincorrect": 2987,
      "ourse": 2988,
      "ĠWeb": 2989,
      "IT": 2990,
      "Ġplot": 2991,
      "aced": 2992,
      "Ġtests": 2993,
      "').": 2994,
      "Ġreference": 2995,
      "plication": 2996,
      "Ġhighest": 2997,
      "ison": 2998,
      "Ġexecute": 2999,
      "Ġguide": 3000,
      "Ġcomprehension": 3001,
      "abc": 3002,
      "\"\"\"": 3003,
      "})": 3004,
      "Frame": 3005,
      "rem": 3006,
      "Ġstri": 3007,
      "ĠBut": 3008,
      "Ġdivisible": 3009,
      "Ġsmaller": 3010,
      "61": 3011,
      "Ġinside": 3012,
      "II": 3013,
      "Ġmove": 3014,
      "dius": 3015,
      "200": 3016,
      "enerate": 3017,
      "ULL": 3018,
      "mean": 3019,
      "Ġcar": 3020,
      "Ġdev": 3021,
      "decimal": 3022,
      "Ġmuch": 3023,
      "}\")": 3024,
      "Now": 3025,
      "Query": 3026,
      "Ġiterate": 3027,
      "Ġday": 3028,
      "Ġargs": 3029,
      "Ġval": 3030,
      "ivot": 3031,
      "year": 3032,
      "Ġprecision": 3033,
      "Invalid": 3034,
      "bit": 3035,
      "Ġfurther": 3036,
      "Ġformul": 3037,
      "ĠEach": 3038,
      "Ġsimply": 3039,
      "Ġstyle": 3040,
      "Ġworld": 3041,
      "iation": 3042,
      "Ġside": 3043,
      "ler": 3044,
      "Ġsource": 3045,
      "solute": 3046,
      "dist": 3047,
      "last": 3048,
      "ised": 3049,
      "Below": 3050,
      "Ġdatasets": 3051,
      "48": 3052,
      "Ġspecifically": 3053,
      "und": 3054,
      "Ġquant": 3055,
      "2000": 3056,
      "cip": 3057,
      "Ġadapt": 3058,
      "Ġrepl": 3059,
      "Ġshort": 3060,
      "Ġcy": 3061,
      "ZM": 3062,
      "Ġdomain": 3063,
      "Ġ&#": 3064,
      "Ġmechanis": 3065,
      "Ġrecomm": 3066,
      "oolean": 3067,
      "processing": 3068,
      "hip": 3069,
      "hent": 3070,
      "ES": 3071,
      "There": 3072,
      "Ġentire": 3073,
      "digit": 3074,
      "Ġperson": 3075,
      "che": 3076,
      "Ġproperly": 3077,
      "Bu": 3078,
      "ĠMake": 3079,
      "Ġyears": 3080,
      "ĠEng": 3081,
      "Ġseem": 3082,
      "Ġmechanics": 3083,
      "Ġpunctuation": 3084,
      "ĠPre": 3085,
      "ĠLe": 3086,
      "Ġinterpre": 3087,
      "ĠInitial": 3088,
      "ĠGo": 3089,
      "Ġcalls": 3090,
      "actions": 3091,
      "rap": 3092,
      "Ġcounter": 3093,
      "Ġtechnolog": 3094,
      "Ġassumes": 3095,
      "[:": 3096,
      "Ġ{\"": 3097,
      "Col": 3098,
      "Ġ('": 3099,
      "69": 3100,
      "reen": 3101,
      "Ġexisting": 3102,
      "Ġred": 3103,
      "Ġattributes": 3104,
      "Ġyield": 3105,
      "Ġunit": 3106,
      ";,": 3107,
      "Ġbeg": 3108,
      "Ġchild": 3109,
      "Ġinvalid": 3110,
      "ided": 3111,
      "lied": 3112,
      "HT": 3113,
      "68": 3114,
      "Ġsuit": 3115,
      "Ġcollection": 3116,
      "Ġmatches": 3117,
      "Ġrepresentation": 3118,
      "Ġprevent": 3119,
      "Test": 3120,
      "pop": 3121,
      "ration": 3122,
      "Ġstructures": 3123,
      "monstr": 3124,
      "|:----------------": 3125,
      "Ġmonth": 3126,
      "ause": 3127,
      "ames": 3128,
      "acy": 3129,
      "atically": 3130,
      "Ġflex": 3131,
      "Ġnormal": 3132,
      "Table": 3133,
      "button": 3134,
      "Ġdemonstr": 3135,
      "Ġstarts": 3136,
      "Ġprog": 3137,
      "ĠDefine": 3138,
      "numer": 3139,
      "roups": 3140,
      "Ġgenerates": 3141,
      "ital": 3142,
      "cing": 3143,
      "Ġdict": 3144,
      "Ġcrit": 3145,
      "state": 3146,
      "transform": 3147,
      "Let": 3148,
      "Ġcompare": 3149,
      "Ġcapable": 3150,
      "'d": 3151,
      "83": 3152,
      "Ġemploy": 3153,
      "Ġqueue": 3154,
      "vow": 3155,
      "AM": 3156,
      "Ġvia": 3157,
      "Ġtre": 3158,
      "Ġfore": 3159,
      "range": 3160,
      "Ġrole": 3161,
      "iment": 3162,
      "cial": 3163,
      "ĠCode": 3164,
      "Ġnumeric": 3165,
      "Ġ===": 3166,
      "Ġ1000": 3167,
      "gex": 3168,
      "Explanation": 3169,
      "Ġexists": 3170,
      "ĠSw": 3171,
      "Ġaccomp": 3172,
      "Ġq": 3173,
      "dimensional": 3174,
      "sor": 3175,
      "Ġrece": 3176,
      "gment": 3177,
      "On": 3178,
      "nsure": 3179,
      "Ġ:=": 3180,
      "Ġuppercase": 3181,
      "jango": 3182,
      "Ġfast": 3183,
      "Ġ`<": 3184,
      "Ġchallenges": 3185,
      "Ġwere": 3186,
      "Ġoptions": 3187,
      "grid": 3188,
      "Ġhandles": 3189,
      ">`": 3190,
      "Ġarchitecture": 3191,
      "Ġtoken": 3192,
      "comes": 3193,
      "Ġprodu": 3194,
      "Ġjson": 3195,
      "Ġtorch": 3196,
      "Ġregression": 3197,
      "Ġinterest": 3198,
      "\",\"": 3199,
      "DO": 3200,
      "idered": 3201,
      "Ġstorage": 3202,
      "Ġsq": 3203,
      "Ġsubstring": 3204,
      "Ġconsidered": 3205,
      "Prime": 3206,
      "iter": 3207,
      "Ġgame": 3208,
      "Ġflo": 3209,
      "Ġservices": 3210,
      "agraph": 3211,
      "soci": 3212,
      "AL": 3213,
      "current": 3214,
      "Ġtitle": 3215,
      "ales": 3216,
      "link": 3217,
      "Ġarguments": 3218,
      "Map": 3219,
      "attern": 3220,
      "odd": 3221,
      "Ġexactly": 3222,
      "Ġdesired": 3223,
      "Ġ});": 3224,
      "Ġattemp": 3225,
      "Ġmanagement": 3226,
      "None": 3227,
      "ption": 3228,
      "agon": 3229,
      "custom": 3230,
      "Ġvers": 3231,
      "ĠMong": 3232,
      "umul": 3233,
      "ĠMan": 3234,
      "ators": 3235,
      "ifying": 3236,
      "Ġencod": 3237,
      "Ġfont": 3238,
      "Type": 3239,
      "49": 3240,
      "primes": 3241,
      "ĠXML": 3242,
      "](": 3243,
      "Ġmid": 3244,
      "Ġsug": 3245,
      "Finally": 3246,
      "stat": 3247,
      "rate": 3248,
      "âĢĵ": 3249,
      "Ġduplicate": 3250,
      "Ġcalculated": 3251,
      "itor": 3252,
      "Sort": 3253,
      "Ġ31": 3254,
      "Ġscenarios": 3255,
      "alled": 3256,
      "pred": 3257,
      "Ġutilizing": 3258,
      "Gra": 3259,
      "abor": 3260,
      "ection": 3261,
      "Ġcle": 3262,
      "Res": 3263,
      "pping": 3264,
      "ĠMain": 3265,
      "'])": 3266,
      "ait": 3267,
      "Item": 3268,
      "ĠSort": 3269,
      "herent": 3270,
      "eve": 3271,
      "Ġdel": 3272,
      "App": 3273,
      "cm": 3274,
      "Ġoptimized": 3275,
      "False": 3276,
      "Ser": 3277,
      "Ġimages": 3278,
      "rase": 3279,
      "mid": 3280,
      "chars": 3281,
      "np": 3282,
      "Ġperfect": 3283,
      "93": 3284,
      "ands": 3285,
      "palindrome": 3286,
      "ager": 3287,
      "Ġsuggest": 3288,
      "lev": 3289,
      "Ġrecords": 3290,
      "ĠServer": 3291,
      "Ġwebsite": 3292,
      "Ġefficiently": 3293,
      "ciples": 3294,
      "72": 3295,
      "Ġ?": 3296,
      "42": 3297,
      "float": 3298,
      "58": 3299,
      "Ġcomponents": 3300,
      "Ġpackage": 3301,
      "Ġexceed": 3302,
      "Ġknown": 3303,
      "ites": 3304,
      "apple": 3305,
      "Ġrecursion": 3306,
      "host": 3307,
      "irection": 3308,
      "Ġcomparison": 3309,
      "bucket": 3310,
      "My": 3311,
      "Reg": 3312,
      "none": 3313,
      "sqrt": 3314,
      "anumer": 3315,
      "Ġhtt": 3316,
      "Ġcub": 3317,
      "And": 3318,
      "Ġxmlns": 3319,
      "Ġassoci": 3320,
      "Ġclassification": 3321,
      "ĠNote": 3322,
      "Enter": 3323,
      "ĠInst": 3324,
      "Ġdetailed": 3325,
      "Ġtuples": 3326,
      "Ġge": 3327,
      "Ġqueries": 3328,
      "getElement": 3329,
      "Ġprinciples": 3330,
      "lications": 3331,
      "Ġfour": 3332,
      "etic": 3333,
      "Ġoptimization": 3334,
      "box": 3335,
      "Ġconstraints": 3336,
      "Ġsitu": 3337,
      "53": 3338,
      "oper": 3339,
      "Ġ(\"": 3340,
      "Ġadds": 3341,
      "OT": 3342,
      "lying": 3343,
      "tml": 3344,
      "212": 3345,
      "cho": 3346,
      "Key": 3347,
      "Ġredu": 3348,
      "User": 3349,
      "Ġden": 3350,
      "pload": 3351,
      "Ġformula": 3352,
      "Ġduplicates": 3353,
      "Ġintricate": 3354,
      "73": 3355,
      "anumeric": 3356,
      "Ġinherent": 3357,
      "Is": 3358,
      "bin": 3359,
      "60": 3360,
      "CH": 3361,
      "ĠQ": 3362,
      "Integer": 3363,
      "Ġscenario": 3364,
      "output": 3365,
      "Ġquite": 3366,
      "Ġproblems": 3367,
      "Ġmathematical": 3368,
      "replace": 3369,
      "ĠviewBox": 3370,
      "ĠNULL": 3371,
      "width": 3372,
      "itch": 3373,
      "alindrom": 3374,
      "Ġrespectively": 3375,
      "long": 3376,
      "ĠAnd": 3377,
      "Ġshift": 3378,
      "Ġotherwise": 3379,
      "ĠPost": 3380,
      "Ġwor": 3381,
      "121": 3382,
      "Ġremaining": 3383,
      "Ġord": 3384,
      "NN": 3385,
      "Ġimplemented": 3386,
      "Dev": 3387,
      "mo": 3388,
      "ials": 3389,
      "Ġcare": 3390,
      "square": 3391,
      "Ġdepth": 3392,
      "Ġinstances": 3393,
      "efficient": 3394,
      ";#": 3395,
      "Ġbucket": 3396,
      "Ġdelete": 3397,
      "Ġinstalled": 3398,
      "Ġbool": 3399,
      "Ġgives": 3400,
      "Ġconfiguration": 3401,
      "ĠReg": 3402,
      "Ġcomputation": 3403,
      "zon": 3404,
      "ION": 3405,
      "weight": 3406,
      "Ġautomatically": 3407,
      "upper": 3408,
      "tocol": 3409,
      "ĠModel": 3410,
      "ĠTherefore": 3411,
      "predict": 3412,
      "FF": 3413,
      "uff": 3414,
      "world": 3415,
      "medi": 3416,
      "Ġdetect": 3417,
      "ĠNo": 3418,
      "ything": 3419,
      "unique": 3420,
      "Ġoutputs": 3421,
      "Ġcross": 3422,
      "plotlib": 3423,
      "Ġsorts": 3424,
      "Ġpy": 3425,
      "cat": 3426,
      "Ġvary": 3427,
      "OIN": 3428,
      "dered": 3429,
      "aa": 3430,
      "cut": 3431,
      "Ġign": 3432,
      "bash": 3433,
      "Ġfit": 3434,
      "Ġschema": 3435,
      "oot": 3436,
      "Ġupdated": 3437,
      "43": 3438,
      "ived": 3439,
      "ĠConvert": 3440,
      "sers": 3441,
      "terns": 3442,
      "yles": 3443,
      "Ġop": 3444,
      "Ġjob": 3445,
      "price": 3446,
      "Ġess": 3447,
      "Ġcatch": 3448,
      "Ġtriangle": 3449,
      "ipe": 3450,
      "Ġoptimize": 3451,
      "Ġstatist": 3452,
      "Ġ)": 3453,
      "Ġfin": 3454,
      "defined": 3455,
      "racket": 3456,
      "ĠASC": 3457,
      "Ġwindow": 3458,
      "oph": 3459,
      "ById": 3460,
      "mail": 3461,
      "loc": 3462,
      "alf": 3463,
      "Ġlabels": 3464,
      "which": 3465,
      "tw": 3466,
      "Ġshape": 3467,
      "Ġsubsequ": 3468,
      "ĠAd": 3469,
      "any": 3470,
      "Ġwon": 3471,
      "En": 3472,
      "bl": 3473,
      "Ġdatetime": 3474,
      "stack": 3475,
      "Ġmess": 3476,
      "Ġactiv": 3477,
      "Ġmiddle": 3478,
      "Ġill": 3479,
      "No": 3480,
      "push": 3481,
      "Ġpivot": 3482,
      "ĠCont": 3483,
      "ĠGra": 3484,
      "PE": 3485,
      "Ġart": 3486,
      "Ġdescri": 3487,
      "ĠHTTP": 3488,
      "ann": 3489,
      "View": 3490,
      "Ġbound": 3491,
      "ĠException": 3492,
      "Ġcommunication": 3493,
      "Ġresulting": 3494,
      "linear": 3495,
      "wards": 3496,
      "><": 3497,
      "Ġpotentially": 3498,
      "Ġbrowser": 3499,
      "57": 3500,
      "Ġtoo": 3501,
      "Ġchoice": 3502,
      "oop": 3503,
      "Ne": 3504,
      "ĠQuantum": 3505,
      "ĠMoreover": 3506,
      "Index": 3507,
      "Ġcluster": 3508,
      "Ġbro": 3509,
      "Ġmodified": 3510,
      "Ġencount": 3511,
      "Ġmerge": 3512,
      "way": 3513,
      "egative": 3514,
      "ordin": 3515,
      "47": 3516,
      "CA": 3517,
      "());": 3518,
      "Ġnavig": 3519,
      "ĠNum": 3520,
      "Ġhtml": 3521,
      "ender": 3522,
      "Ġparts": 3523,
      "lice": 3524,
      "math": 3525,
      "SV": 3526,
      "mult": 3527,
      "mt": 3528,
      "Ġ*/": 3529,
      "CD": 3530,
      "enge": 3531,
      "sentence": 3532,
      "Ġmention": 3533,
      "Ġtypically": 3534,
      "Ġexplain": 3535,
      "client": 3536,
      "pecially": 3537,
      "osed": 3538,
      "Ġphys": 3539,
      "`:": 3540,
      "Ġincrement": 3541,
      "Ġboolean": 3542,
      "Ġwritten": 3543,
      "seq": 3544,
      "paramet": 3545,
      "aint": 3546,
      "Ġoverall": 3547,
      "What": 3548,
      "Ġcustomer": 3549,
      "ĠZ": 3550,
      "adecimal": 3551,
      ")))": 3552,
      "Ġplease": 3553,
      "Ġclear": 3554,
      "ĠWHERE": 3555,
      "ict": 3556,
      "Ġold": 3557,
      "quares": 3558,
      "Ġmetrics": 3559,
      "[\"": 3560,
      "Ġscale": 3561,
      "fill": 3562,
      "fra": 3563,
      "match": 3564,
      "Ġusually": 3565,
      "column": 3566,
      "ĠMongoDB": 3567,
      "Ġremember": 3568,
      "ours": 3569,
      "chron": 3570,
      "Ġmeasure": 3571,
      "With": 3572,
      "ouse": 3573,
      "lat": 3574,
      "common": 3575,
      "ernet": 3576,
      "ocker": 3577,
      "depend": 3578,
      "Line": 3579,
      "Ġins": 3580,
      "Ġcollections": 3581,
      "Ġemployees": 3582,
      "UP": 3583,
      "Ġpe": 3584,
      "Ġ-=": 3585,
      "factor": 3586,
      "Ġhard": 3587,
      "integer": 3588,
      "create": 3589,
      "How": 3590,
      "ges": 3591,
      "sy": 3592,
      "Ġengine": 3593,
      "});": 3594,
      "ĠPrint": 3595,
      "ĠLoad": 3596,
      "Ġrelated": 3597,
      "Ġbehavior": 3598,
      "Ġcorrel": 3599,
      "Ġsuitable": 3600,
      "123": 3601,
      "Client": 3602,
      "Ġaround": 3603,
      "mplate": 3604,
      "ĠAND": 3605,
      "Ġreco": 3606,
      "except": 3607,
      "acter": 3608,
      "Ġcalculation": 3609,
      "Ġabsolute": 3610,
      "Ġequation": 3611,
      "ĠINT": 3612,
      "return": 3613,
      "Ġeffective": 3614,
      "Ġprefix": 3615,
      "Ġplt": 3616,
      "ensive": 3617,
      "Ġpartition": 3618,
      "Ġpad": 3619,
      "Ġben": 3620,
      "change": 3621,
      "Ġrules": 3622,
      "Do": 3623,
      "content": 3624,
      "Ġeffectively": 3625,
      "Ġpatterns": 3626,
      "anana": 3627,
      "Ġenumer": 3628,
      "getElementById": 3629,
      "Ġder": 3630,
      "Ġprocedure": 3631,
      "Ġpositions": 3632,
      "ĠFirst": 3633,
      "Ġfinds": 3634,
      "Ġru": 3635,
      "Ġhist": 3636,
      "Ġprinted": 3637,
      "txt": 3638,
      "Ġaffect": 3639,
      "Ġjoin": 3640,
      "Ġways": 3641,
      "username": 3642,
      "Ġhigher": 3643,
      "Ġcontinue": 3644,
      "Ġhaving": 3645,
      "Ġperforms": 3646,
      "zero": 3647,
      "imest": 3648,
      "ĠReact": 3649,
      "Ġswap": 3650,
      "isual": 3651,
      "frame": 3652,
      "Ġurl": 3653,
      "Ġrequirement": 3654,
      "Ġanimation": 3655,
      "ority": 3656,
      "Ġintro": 3657,
      "ĠPl": 3658,
      "ars": 3659,
      "Ġgenerated": 3660,
      "image": 3661,
      "Ġagainst": 3662,
      "Ġdefin": 3663,
      "Ġdepends": 3664,
      "umulative": 3665,
      "Ġbox": 3666,
      "ĠGet": 3667,
      "Java": 3668,
      "rc": 3669,
      "icult": 3670,
      "mage": 3671,
      "212121": 3672,
      "Ġoptimal": 3673,
      "Object": 3674,
      "uting": 3675,
      "Emp": 3676,
      "ithmetic": 3677,
      "Then": 3678,
      "ĠAnaly": 3679,
      "91": 3680,
      "Ġaccepts": 3681,
      "parse": 3682,
      "Ġhyper": 3683,
      "Ġwhy": 3684,
      "Ġconverts": 3685,
      "ĠLambda": 3686,
      "requency": 3687,
      "UT": 3688,
      "gether": 3689,
      "Ġconstant": 3690,
      "81": 3691,
      "binary": 3692,
      "imestamp": 3693,
      "Ġax": 3694,
      "Ġnature": 3695,
      "Ġrout": 3696,
      "Ġiterates": 3697,
      "inter": 3698,
      "Ġsolved": 3699,
      "Ġfibonacci": 3700,
      "Sh": 3701,
      "Ġplan": 3702,
      "api": 3703,
      "area": 3704,
      "Ġimplementing": 3705,
      "Ġauthent": 3706,
      "Ġcoding": 3707,
      "Ġsequences": 3708,
      "Ġâ": 3709,
      "Ġincorporate": 3710,
      "Ġbegin": 3711,
      "Ġ,": 3712,
      "stop": 3713,
      "ris": 3714,
      "Ġobser": 3715,
      "Ġput": 3716,
      "Can": 3717,
      "Ġespecially": 3718,
      "ĠWindows": 3719,
      "Ġretrieve": 3720,
      "group": 3721,
      ")$": 3722,
      "Ġcause": 3723,
      "Ġmanaging": 3724,
      "greg": 3725,
      "Ġtensor": 3726,
      "HTML": 3727,
      "(-": 3728,
      "soft": 3729,
      "Ġdivision": 3730,
      "Ġrather": 3731,
      "Ġchallenge": 3732,
      "ationship": 3733,
      "ĠPy": 3734,
      "Ġanalytical": 3735,
      "::-": 3736,
      "Ġfail": 3737,
      "ophistic": 3738,
      "Ġenhance": 3739,
      "Ġinflu": 3740,
      "Ġones": 3741,
      "Ġlengths": 3742,
      "Ġassert": 3743,
      "ood": 3744,
      "Ġmultiplication": 3745,
      "quest": 3746,
      "={": 3747,
      "php": 3748,
      "token": 3749,
      "Ġthus": 3750,
      "DER": 3751,
      "ĠMySQL": 3752,
      "board": 3753,
      "Ġsophistic": 3754,
      "lected": 3755,
      "Case": 3756,
      "Ġdifficult": 3757,
      "iod": 3758,
      "62": 3759,
      "Yes": 3760,
      "]);": 3761,
      "Ġcapabilities": 3762,
      "ĠTrans": 3763,
      "ĠInitialize": 3764,
      "Ġdictionaries": 3765,
      "itoring": 3766,
      "raft": 3767,
      "Ġcopy": 3768,
      "Ġenter": 3769,
      "Ġessential": 3770,
      "Ġdecl": 3771,
      "local": 3772,
      "ĠEnsure": 3773,
      "]*": 3774,
      "Ġreport": 3775,
      "Ġ($": 3776,
      "Ġdays": 3777,
      "ync": 3778,
      "Model": 3779,
      "Ġ`[": 3780,
      "Ġ''": 3781,
      "ĠThey": 3782,
      "Ġvowel": 3783,
      "9999": 3784,
      "Ġparse": 3785,
      "Ġlocation": 3786,
      "Ġvolume": 3787,
      "Ġstatus": 3788,
      "Ġask": 3789,
      "ably": 3790,
      "Ġaccurate": 3791,
      "ĠBig": 3792,
      "`)": 3793,
      "ĠType": 3794,
      "ecur": 3795,
      "Ġamong": 3796,
      "Ġfloating": 3797,
      "AX": 3798,
      "Ġhapp": 3799,
      "Ġmechanism": 3800,
      "Ġrev": 3801,
      ".*": 3802,
      "remove": 3803,
      "null": 3804,
      "Ġiteration": 3805,
      "Ġensures": 3806,
      "height": 3807,
      "Ġemployee": 3808,
      "Ġmatplotlib": 3809,
      "eep": 3810,
      "ĠEn": 3811,
      "Ġconversion": 3812,
      "insert": 3813,
      "Ġsalary": 3814,
      "arp": 3815,
      "fru": 3816,
      "tom": 3817,
      "idden": 3818,
      "xml": 3819,
      "Ġlabel": 3820,
      "ĠMath": 3821,
      "Ġclos": 3822,
      "Ġcontinuous": 3823,
      "ubble": 3824,
      "ĠTensor": 3825,
      "keys": 3826,
      "Ġidea": 3827,
      "ee": 3828,
      "message": 3829,
      "Ġtogether": 3830,
      "Ġinvolve": 3831,
      "Ġmessages": 3832,
      "Ġtaking": 3833,
      "Ġsetup": 3834,
      "ĠRed": 3835,
      "Ġrisk": 3836,
      "Ġproducts": 3837,
      "ĠFire": 3838,
      "Ġentries": 3839,
      "001": 3840,
      "ĠCalculate": 3841,
      "Ġsophisticated": 3842,
      "nn": 3843,
      "Ġparagraph": 3844,
      "eter": 3845,
      "connect": 3846,
      "mazon": 3847,
      "Ġupdates": 3848,
      "Ġinvest": 3849,
      "ĠDep": 3850,
      "az": 3851,
      "ied": 3852,
      "roid": 3853,
      "Ġstrategy": 3854,
      "Ġpredictions": 3855,
      "imate": 3856,
      "anges": 3857,
      "ĠLog": 3858,
      "Ġgroups": 3859,
      "atively": 3860,
      "show": 3861,
      "Word": 3862,
      "core": 3863,
      "Ġaltern": 3864,
      "Ġorg": 3865,
      "Ġcru": 3866,
      "pattern": 3867,
      "Ġlight": 3868,
      "Ġeffects": 3869,
      "pair": 3870,
      "ome": 3871,
      "Ġtele": 3872,
      "object": 3873,
      "student": 3874,
      "ifications": 3875,
      "post": 3876,
      "onent": 3877,
      "iding": 3878,
      "Ġhexadecimal": 3879,
      "Implement": 3880,
      "ah": 3881,
      "ams": 3882,
      "hello": 3883,
      "Ġoccurrences": 3884,
      "Ġfunctional": 3885,
      "Ġconson": 3886,
      "rand": 3887,
      "ĠSE": 3888,
      "suming": 3889,
      "ĠASCII": 3890,
      "lies": 3891,
      "Ġcenter": 3892,
      "heap": 3893,
      "ĠTrain": 3894,
      "52": 3895,
      "63": 3896,
      "irth": 3897,
      "structure": 3898,
      "Ġretriev": 3899,
      "Ġpractical": 3900,
      "section": 3901,
      "att": 3902,
      "ored": 3903,
      "Ġgradient": 3904,
      "cale": 3905,
      "sets": 3906,
      "inner": 3907,
      "cessed": 3908,
      "dif": 3909,
      "usion": 3910,
      "hile": 3911,
      "grams": 3912,
      "Ġseems": 3913,
      "ĠIP": 3914,
      "Ġmut": 3915,
      "Ġquantity": 3916,
      "cles": 3917,
      "Ġgoes": 3918,
      "alle": 3919,
      "Ġdecre": 3920,
      "Ġreduce": 3921,
      "92": 3922,
      "Ġimplications": 3923,
      "Product": 3924,
      "anguage": 3925,
      "ral": 3926,
      "Ġremain": 3927,
      "Ġrelationship": 3928,
      "Ġassociated": 3929,
      "80": 3930,
      "arant": 3931,
      "img": 3932,
      "<!": 3933,
      "Ġexh": 3934,
      "aches": 3935,
      "has": 3936,
      "rong": 3937,
      "Ġsyn": 3938,
      "top": 3939,
      "Ġexamples": 3940,
      "Ġmeaning": 3941,
      "Ġlikely": 3942,
      "Ġcalculating": 3943,
      "Ġ/>": 3944,
      "4477": 3945,
      "Ġevaluate": 3946,
      "Ġpaths": 3947,
      "Ġfruit": 3948,
      "Ġpadding": 3949,
      "omple": 3950,
      "Ġperiod": 3951,
      "Ġrespective": 3952,
      "Trans": 3953,
      "Ġaction": 3954,
      "secut": 3955,
      "assed": 3956,
      "Ġpermut": 3957,
      "reating": 3958,
      "'),": 3959,
      "Flow": 3960,
      "Max": 3961,
      "ope": 3962,
      "ĠSwift": 3963,
      "ĠEmp": 3964,
      "Ġlooking": 3965,
      "ĠDjango": 3966,
      "Ġmaintaining": 3967,
      "shape": 3968,
      "Ġtags": 3969,
      "CE": 3970,
      "Ġtr": 3971,
      "off": 3972,
      "posit": 3973,
      "Ġembed": 3974,
      "ront": 3975,
      "ĠFlask": 3976,
      "lambda": 3977,
      "ecute": 3978,
      "Ġoccurrence": 3979,
      "apping": 3980,
      "obj": 3981,
      "=(": 3982,
      "Ġoffer": 3983,
      "Ġdrop": 3984,
      "\").": 3985,
      "40": 3986,
      "Ġchoose": 3987,
      "ĠDes": 3988,
      "child": 3989,
      "71": 3990,
      "Ġbatch": 3991,
      "ĠCan": 3992,
      "ĠDocker": 3993,
      "Ġguarant": 3994,
      "atis": 3995,
      "Ġlot": 3996,
      "After": 3997,
      "Ġcout": 3998,
      "Ġappears": 3999,
      "ĠName": 4000,
      "Ġfinding": 4001,
      "Ġcombination": 4002,
      "ĠCom": 4003,
      "Ġrepresented": 4004,
      "Ġdefines": 4005,
      "Ġrender": 4006,
      "All": 4007,
      "true": 4008,
      "Ġprotocol": 4009,
      "Ġuseful": 4010,
      "Ġextra": 4011,
      "Ġcrucial": 4012,
      "Ġbecomes": 4013,
      "Ġkind": 4014,
      "clusive": 4015,
      "ainer": 4016,
      "ls": 4017,
      "Ġdimensions": 4018,
      "82": 4019,
      "lobal": 4020,
      "ched": 4021,
      "Ġmanually": 4022,
      "Ġdoing": 4023,
      "Ġstructured": 4024,
      "51": 4025,
      "File": 4026,
      "ĠIs": 4027,
      "clusion": 4028,
      "numeric": 4029,
      "YPE": 4030,
      "Ġmethodolog": 4031,
      "ĠSub": 4032,
      "Ġgenerally": 4033,
      "can": 4034,
      "write": 4035,
      "Ġaccordingly": 4036,
      "Ġversions": 4037,
      "cop": 4038,
      "no": 4039,
      "ĠOpen": 4040,
      "ĠUsing": 4041,
      "Ġcourse": 4042,
      "ĠAmazon": 4043,
      "Ġsettings": 4044,
      "!\"": 4045,
      "ater": 4046,
      "Ġability": 4047,
      "ux": 4048,
      "categor": 4049,
      "Ġdb": 4050,
      "Ġdepartment": 4051,
      "median": 4052,
      "Ġsave": 4053,
      "Ġmentioned": 4054,
      "Path": 4055,
      "hex": 4056,
      "Ġeasy": 4057,
      "Ġdownload": 4058,
      "Ġappend": 4059,
      "tri": 4060,
      "iness": 4061,
      "Ġ'.": 4062,
      "State": 4063,
      "Ġconverted": 4064,
      "greSQL": 4065,
      "Ġinterpret": 4066,
      "ather": 4067,
      "na": 4068,
      "vide": 4069,
      "liers": 4070,
      "Ġenumerate": 4071,
      "else": 4072,
      "tra": 4073,
      "Ġsupports": 4074,
      "ĠHand": 4075,
      "arily": 4076,
      "Par": 4077,
      "Ġlayers": 4078,
      "Ġsession": 4079,
      "ta": 4080,
      "ĠAut": 4081,
      "ĠOr": 4082,
      "Ġgets": 4083,
      "Ġstream": 4084,
      "itude": 4085,
      "digits": 4086,
      "Ġprecise": 4087,
      "upp": 4088,
      "Additionally": 4089,
      "atures": 4090,
      "ledge": 4091,
      "Ġradius": 4092,
      "labels": 4093,
      "Ġrepeated": 4094,
      "Ġdescription": 4095,
      "ety": 4096,
      "Ġdistributed": 4097,
      "Ġsentiment": 4098,
      "Ġobt": 4099,
      "Ġincluded": 4100,
      "ua": 4101,
      "icrosoft": 4102,
      "ĠPerl": 4103,
      "Ġdealing": 4104,
      "lication": 4105,
      "Ġteleport": 4106,
      "Ġprobability": 4107,
      "agement": 4108,
      "ĠVisual": 4109,
      "Ġtf": 4110,
      "poch": 4111,
      "Ġmicro": 4112,
      "','": 4113,
      "Ġnecessit": 4114,
      "Build": 4115,
      "âĶ": 4116,
      "Ġreach": 4117,
      "freq": 4118,
      "rout": 4119,
      "Ġassume": 4120,
      "]+": 4121,
      "Ġblue": 4122,
      "river": 4123,
      "acing": 4124,
      "ipeline": 4125,
      "idate": 4126,
      "90": 4127,
      "ĠRust": 4128,
      "assert": 4129,
      "Ġcapt": 4130,
      "limit": 4131,
      "Ġspecify": 4132,
      "edia": 4133,
      "bases": 4134,
      "Ġregard": 4135,
      "Ġsegment": 4136,
      "Ġpermission": 4137,
      "negative": 4138,
      "Ġfive": 4139,
      "counts": 4140,
      "ĠCustom": 4141,
      "Ġwhole": 4142,
      ";&": 4143,
      "select": 4144,
      "Ġscreen": 4145,
      "ultane": 4146,
      "service": 4147,
      "Ġpoly": 4148,
      "ili": 4149,
      "go": 4150,
      "Ġsa": 4151,
      "EN": 4152,
      "Ġsubst": 4153,
      "ferences": 4154,
      "ĠOther": 4155,
      "Ġinterval": 4156,
      "ĠRandom": 4157,
      "Ġhttps": 4158,
      "levant": 4159,
      "Ġsatis": 4160,
      "Ġfinally": 4161,
      "Ġsentences": 4162,
      "Ġupon": 4163,
      "Ġcumulative": 4164,
      "Ġcoll": 4165,
      "Consider": 4166,
      "city": 4167,
      "Ġhost": 4168,
      "spec": 4169,
      "Ġsay": 4170,
      "ĠTensorFlow": 4171,
      "info": 4172,
      "Ġtransaction": 4173,
      "Ġwide": 4174,
      "ĠOn": 4175,
      "Ġconverting": 4176,
      "ĠRE": 4177,
      "ancing": 4178,
      "Search": 4179,
      "Ġ',": 4180,
      "secutive": 4181,
      "Ġbig": 4182,
      "ROUP": 4183,
      "Ġeasily": 4184,
      "ĠON": 4185,
      "ĠPostgreSQL": 4186,
      "tes": 4187,
      "Ġfun": 4188,
      "omin": 4189,
      "Ġmanipulation": 4190,
      "Ġactivation": 4191,
      "Ġpassed": 4192,
      "Last": 4193,
      "[::-": 4194,
      "Ġscalability": 4195,
      "inite": 4196,
      "Ġbracket": 4197,
      "comple": 4198,
      "Ġcontainer": 4199,
      "loss": 4200,
      "Ġcurrently": 4201,
      "icial": 4202,
      "Ġstoring": 4203,
      "cii": 4204,
      "option": 4205,
      "ople": 4206,
      "aus": 4207,
      "Ġexpressions": 4208,
      "ering": 4209,
      "Ġswitch": 4210,
      "ncy": 4211,
      "ĠText": 4212,
      "det": 4213,
      "reshold": 4214,
      "ighb": 4215,
      "Color": 4216,
      "]],": 4217,
      "vowels": 4218,
      "Ġmodul": 4219,
      "Ġillust": 4220,
      "70": 4221,
      "park": 4222,
      "aten": 4223,
      "\"></": 4224,
      "Ġverify": 4225,
      "Ġexperience": 4226,
      "At": 4227,
      "'].": 4228,
      "Ġselected": 4229,
      "Ġrecogn": 4230,
      "ename": 4231,
      "Ġprocesses": 4232,
      "ds": 4233,
      "Ġ$\\": 4234,
      "Ġproviding": 4235,
      "adow": 4236,
      "pare": 4237,
      "rows": 4238,
      "Ġdecision": 4239,
      "fitting": 4240,
      "Ġcompat": 4241,
      "second": 4242,
      "Ġratio": 4243,
      "atural": 4244,
      "Ġauthor": 4245,
      "Ġpreser": 4246,
      "Ġbar": 4247,
      "Ġcombin": 4248,
      "bar": 4249,
      "cast": 4250,
      "Ġgen": 4251,
      "ĠGP": 4252,
      "Ġactually": 4253,
      "ĠCounter": 4254,
      ":\",": 4255,
      "Ġcoordin": 4256,
      "xy": 4257,
      "omial": 4258,
      "pip": 4259,
      "CTYPE": 4260,
      "Ġbroad": 4261,
      "ĠGiven": 4262,
      "address": 4263,
      "heet": 4264,
      "Ġencryption": 4265,
      "dentials": 4266,
      "Ġequals": 4267,
      "abs": 4268,
      "Ġfilters": 4269,
      "ometric": 4270,
      "++;": 4271,
      "Ġsimplified": 4272,
      "Ġpalindrom": 4273,
      "ased": 4274,
      "Ġprimary": 4275,
      "DOCTYPE": 4276,
      "223": 4277,
      "status": 4278,
      "Ġwebpage": 4279,
      "41": 4280,
      "Ġweights": 4281,
      "ĠDis": 4282,
      "Ġprincip": 4283,
      "run": 4284,
      "agonal": 4285,
      "Devise": 4286,
      "Be": 4287,
      "DE": 4288,
      "Ġpurpose": 4289,
      "Ġtheory": 4290,
      "autif": 4291,
      "One": 4292,
      "olumn": 4293,
      "Ġ-->": 4294,
      "Ġcommands": 4295,
      "Ġtrig": 4296,
      "ptions": 4297,
      "ĠUp": 4298,
      "Ġtyping": 4299,
      "Ġregex": 4300,
      "Ġhence": 4301,
      "Ġ60": 4302,
      "Ġextension": 4303,
      "equ": 4304,
      "alls": 4305,
      "ĠWith": 4306,
      "Ġlines": 4307,
      "Ġkeyword": 4308,
      "uning": 4309,
      "Ġvert": 4310,
      "Ġloops": 4311,
      "Ġsatisf": 4312,
      "void": 4313,
      "ĠDate": 4314,
      "ĠEnglish": 4315,
      "Ġclause": 4316,
      "gs": 4317,
      "autiful": 4318,
      "Ġregist": 4319,
      "Ġalphanumeric": 4320,
      "ĠStudio": 4321,
      "icle": 4322,
      "Ġruns": 4323,
      "Ġhelper": 4324,
      "Ġaw": 4325,
      "Ġlambda": 4326,
      "pache": 4327,
      "Ġquad": 4328,
      "Ġremoving": 4329,
      "most": 4330,
      "Ġteleportation": 4331,
      "FS": 4332,
      "DATE": 4333,
      "names": 4334,
      "Ġincreasing": 4335,
      "5523": 4336,
      "riend": 4337,
      "response": 4338,
      "Ġenough": 4339,
      "Ġentry": 4340,
      "Ġinitialize": 4341,
      "layers": 4342,
      "alpha": 4343,
      "Ġwrong": 4344,
      "Ġhref": 4345,
      "Ġselection": 4346,
      "click": 4347,
      "ĠRem": 4348,
      "ubernet": 4349,
      "ubernetes": 4350,
      "Ġdynamically": 4351,
      "Ġfreq": 4352,
      "icul": 4353,
      "where": 4354,
      "sta": 4355,
      "Ġlimitations": 4356,
      "ran": 4357,
      "Age": 4358,
      "acks": 4359,
      "try": 4360,
      "reet": 4361,
      "coming": 4362,
      "EY": 4363,
      "Bl": 4364,
      "Ġcategory": 4365,
      "Le": 4366,
      "err": 4367,
      "Ġconstructor": 4368,
      "idx": 4369,
      "atrix": 4370,
      "achine": 4371,
      "Ġsimultane": 4372,
      "OUNT": 4373,
      "dp": 4374,
      "Ġflat": 4375,
      "itions": 4376,
      "Ġfra": 4377,
      "osite": 4378,
      "Ġexecuted": 4379,
      "ĠConsole": 4380,
      "Ġbody": 4381,
      "CR": 4382,
      "Ġfully": 4383,
      "ka": 4384,
      "source": 4385,
      "empty": 4386,
      "ctionary": 4387,
      "Ġepoch": 4388,
      "Ġlex": 4389,
      "Ġclose": 4390,
      "Use": 4391,
      "Ġoccurred": 4392,
      "Ġfree": 4393,
      "Ġchanging": 4394,
      "Aut": 4395,
      "Ġconcaten": 4396,
      "Ġsignificantly": 4397,
      "Ġ40": 4398,
      "Ġupload": 4399,
      "ĠNow": 4400,
      "project": 4401,
      "Ġauto": 4402,
      "Ġanalyze": 4403,
      "Ġdirection": 4404,
      "Ġreli": 4405,
      "server": 4406,
      "Ġcustomers": 4407,
      "Ġ((": 4408,
      "Ġcomes": 4409,
      "Ġeasier": 4410,
      "cpp": 4411,
      "Ġcriter": 4412,
      "Ġmultiply": 4413,
      "ĠSp": 4414,
      "Ġprintf": 4415,
      "oded": 4416,
      "Ġintegration": 4417,
      "Ġleading": 4418,
      "calculate": 4419,
      "_{": 4420,
      "ortun": 4421,
      "ons": 4422,
      "1234": 4423,
      "ribute": 4424,
      "Ġmemo": 4425,
      "Ġusername": 4426,
      "Ġturn": 4427,
      "Ġnn": 4428,
      "Ġreturning": 4429,
      "lick": 4430,
      "Ġmeet": 4431,
      "Ġdeployment": 4432,
      "Ġbi": 4433,
      "Ġintrodu": 4434,
      "Ġbal": 4435,
      "Ġcapital": 4436,
      "Ġpractice": 4437,
      "Ġthreads": 4438,
      "Ġsubtract": 4439,
      "zure": 4440,
      "Ġfig": 4441,
      "Ġweek": 4442,
      "Ġbey": 4443,
      "Ġseen": 4444,
      "ĠBy": 4445,
      "Ġapplied": 4446,
      "Ġbeyond": 4447,
      "Ġestab": 4448,
      "shift": 4449,
      "tuple": 4450,
      "Ġarithmetic": 4451,
      "ĠâĢ": 4452,
      "255": 4453,
      "rec": 4454,
      "Ġhalf": 4455,
      "icode": 4456,
      "Ġmonitoring": 4457,
      "Ġaspect": 4458,
      "._": 4459,
      "config": 4460,
      "selection": 4461,
      "Ġinteraction": 4462,
      "Ġ`'": 4463,
      "Ġexam": 4464,
      "Ġnamespace": 4465,
      "Mod": 4466,
      "Ġtravers": 4467,
      "sharp": 4468,
      "Ġcreation": 4469,
      "Ġpackages": 4470,
      "Ġsurface": 4471,
      "Ġnarr": 4472,
      "Ġexpect": 4473,
      "ĠDataFrame": 4474,
      ".)": 4475,
      "Ġrepresenting": 4476,
      "sist": 4477,
      "Ġabs": 4478,
      "Ġoffset": 4479,
      "Ġpercent": 4480,
      "Ġreplaced": 4481,
      "Not": 4482,
      "ule": 4483,
      "imize": 4484,
      "ĠConsider": 4485,
      "Ġcursor": 4486,
      "ĠSELECT": 4487,
      "ieve": 4488,
      "inked": 4489,
      "ats": 4490,
      "AP": 4491,
      "Ġmarket": 4492,
      "drop": 4493,
      "OM": 4494,
      "cores": 4495,
      "while": 4496,
      "Ġstrict": 4497,
      "Ġstudents": 4498,
      "Ġcorrelation": 4499,
      "Ġobtain": 4500,
      "Ġmeticul": 4501,
      "database": 4502,
      "Ġgetting": 4503,
      "Ġorgan": 4504,
      "kit": 4505,
      "Ġrevers": 4506,
      "ĠKubernetes": 4507,
      "Ġrelevant": 4508,
      "Ġstock": 4509,
      "pi": 4510,
      "Ġindepend": 4511,
      "grade": 4512,
      "Ġcomments": 4513,
      "Could": 4514,
      "Length": 4515,
      "fibonacci": 4516,
      "Code": 4517,
      "ĠRun": 4518,
      "ises": 4519,
      "Ġendpoint": 4520,
      "Ġtechnique": 4521,
      "iverse": 4522,
      "Ġneural": 4523,
      "Ġresource": 4524,
      "cher": 4525,
      "lem": 4526,
      "lling": 4527,
      ")}": 4528,
      "Ġscan": 4529,
      "Ġsem": 4530,
      "Ġdocumentation": 4531,
      "Ġaccomplish": 4532,
      "Ġevents": 4533,
      "Ġencaps": 4534,
      "Ġbenef": 4535,
      "Custom": 4536,
      "ivers": 4537,
      "Ġknowledge": 4538,
      "ternal": 4539,
      "Ġsl": 4540,
      "ba": 4541,
      "Ġmanner": 4542,
      "OL": 4543,
      "Ġalert": 4544,
      "ĠDynam": 4545,
      "ĠTree": 4546,
      "ector": 4547,
      "ĠJOIN": 4548,
      "ean": 4549,
      "ĠInput": 4550,
      "Ġpointer": 4551,
      "He": 4552,
      "Tree": 4553,
      "Ġreview": 4554,
      "Ġdivide": 4555,
      "Ġgoing": 4556,
      "leg": 4557,
      "Ġ`.": 4558,
      "Ġhelps": 4559,
      "ĠClass": 4560,
      "tree": 4561,
      "eros": 4562,
      "Ġcryptographic": 4563,
      "sively": 4564,
      "ols": 4565,
      "prev": 4566,
      "Ġphrase": 4567,
      "banana": 4568,
      "Ġsuccessfully": 4569,
      "\"),": 4570,
      "Ġund": 4571,
      "imeter": 4572,
      "Ġske": 4573,
      "Ġ/*": 4574,
      "keras": 4575,
      "posed": 4576,
      "New": 4577,
      "Com": 4578,
      "Ġconclusion": 4579,
      "ĠKey": 4580,
      "Ġsymbols": 4581,
      "pack": 4582,
      "ĠHash": 4583,
      "ĠFe": 4584,
      "Ġ};": 4585,
      "Ġdatabases": 4586,
      "Ġcalling": 4587,
      "Ġborder": 4588,
      "Ġsend": 4589,
      "Ġresol": 4590,
      "Ġmeasures": 4591,
      "Ġconn": 4592,
      "Ġhighly": 4593,
      "Ġwriting": 4594,
      "Ġnarrative": 4595,
      "ĠObject": 4596,
      "Ġcomputes": 4597,
      "mallest": 4598,
      "mand": 4599,
      "enu": 4600,
      "ĠUI": 4601,
      "ĠRep": 4602,
      "imin": 4603,
      "Ġexplanation": 4604,
      "store": 4605,
      "erature": 4606,
      "ipher": 4607,
      "Ġfine": 4608,
      "ethod": 4609,
      "Ġprogression": 4610,
      "cout": 4611,
      "Ġslow": 4612,
      "close": 4613,
      "iting": 4614,
      "Ġthereby": 4615,
      "Ġparalle": 4616,
      "------------": 4617,
      "Ġremoved": 4618,
      "ĠSolution": 4619,
      "ltk": 4620,
      "Next": 4621,
      "OST": 4622,
      "Check": 4623,
      "Ġrule": 4624,
      "Ġbuilding": 4625,
      "Ġprediction": 4626,
      "ĠOR": 4627,
      "Ġpol": 4628,
      "osen": 4629,
      "ORDER": 4630,
      "Numbers": 4631,
      "parent": 4632,
      "Ġ\"\"": 4633,
      "Ġcurr": 4634,
      "web": 4635,
      "ĠInter": 4636,
      "Ġaccurately": 4637,
      "ĠAll": 4638,
      "aking": 4639,
      "Ġidentifying": 4640,
      "csharp": 4641,
      "irm": 4642,
      "Ġdifferences": 4643,
      "(*": 4644,
      "Message": 4645,
      "ĠHow": 4646,
      "Ġaggreg": 4647,
      "Ġlearn": 4648,
      "Ġteam": 4649,
      "Ġcombinations": 4650,
      "Ġoccurs": 4651,
      "ĠLet": 4652,
      "âĶĢ": 4653,
      "submit": 4654,
      "person": 4655,
      "Ġencomp": 4656,
      "lier": 4657,
      "orest": 4658,
      "ERT": 4659,
      "Det": 4660,
      "Ġcoefficient": 4661,
      "ĠFind": 4662,
      "ĠProduct": 4663,
      "Ġcapacity": 4664,
      "Ġcodes": 4665,
      "parameters": 4666,
      "UR": 4667,
      "Ġlayout": 4668,
      "ills": 4669,
      "Ġreasoning": 4670,
      "hand": 4671,
      "ĠExample": 4672,
      "une": 4673,
      "Ġprocessed": 4674,
      "resh": 4675,
      "usiness": 4676,
      "Ġfeed": 4677,
      "Ġ(!": 4678,
      "Ġdelet": 4679,
      "Ġfold": 4680,
      "Ġcomputer": 4681,
      "urrency": 4682,
      "Ġflag": 4683,
      "Ġremoves": 4684,
      "Ġfollowed": 4685,
      "Ġ[(": 4686,
      "ratic": 4687,
      "ĠProgram": 4688,
      "now": 4689,
      "rot": 4690,
      "Event": 4691,
      "Ġfails": 4692,
      "irt": 4693,
      "balance": 4694,
      "semb": 4695,
      "ĠOnce": 4696,
      "argin": 4697,
      "Ġpa": 4698,
      "fn": 4699,
      "Ġsection": 4700,
      "adoop": 4701,
      "ĠMult": 4702,
      "Ġmultipl": 4703,
      "ĠCol": 4704,
      "Ġvide": 4705,
      "Ġdetection": 4706,
      "Ġphone": 4707,
      "(#": 4708,
      "500": 4709,
      "CRE": 4710,
      "Ġsquares": 4711,
      "mental": 4712,
      "olat": 4713,
      "sequences": 4714,
      "double": 4715,
      "Ġsuff": 4716,
      "ĠNOT": 4717,
      "Ġrealm": 4718,
      "Scal": 4719,
      "ĠTe": 4720,
      "iving": 4721,
      "lished": 4722,
      "Ġreposit": 4723,
      "cum": 4724,
      "Ġtheories": 4725,
      "users": 4726,
      "Ġrefer": 4727,
      "Ġothers": 4728,
      "Ġmist": 4729,
      "Ġcity": 4730,
      "cluding": 4731,
      "ĠNew": 4732,
      "pass": 4733,
      "ĠGraph": 4734,
      "\"],": 4735,
      "deed": 4736,
      "Ġhours": 4737,
      "Ġfixed": 4738,
      "Ġrecommended": 4739,
      "Ġir": 4740,
      "Ġdivided": 4741,
      "Ġfaster": 4742,
      "DK": 4743,
      "vanced": 4744,
      "Ġsuccessful": 4745,
      "oub": 4746,
      "lines": 4747,
      "optim": 4748,
      "Ġproduction": 4749,
      "Ġsubsequent": 4750,
      "Ġconsecutive": 4751,
      "Ġexpon": 4752,
      "Man": 4753,
      "Ġencompass": 4754,
      "Ġpromp": 4755,
      "Ġinfra": 4756,
      "Ġdataframe": 4757,
      "fruit": 4758,
      "document": 4759,
      "Ġpossib": 4760,
      "ĠPerform": 4761,
      "Ġstores": 4762,
      "Ġtensorflow": 4763,
      ":]": 4764,
      "Ġgenerating": 4765,
      "thread": 4766,
      "ĠLearning": 4767,
      "Ġstra": 4768,
      "Ġtransactions": 4769,
      "125": 4770,
      "Ġlogging": 4771,
      "Ġadvant": 4772,
      "Ġcache": 4773,
      "ocation": 4774,
      "Ġmerged": 4775,
      "rat": 4776,
      "Ġpers": 4777,
      "'`": 4778,
      "ĠNot": 4779,
      "Ġperforming": 4780,
      "uby": 4781,
      "Ġrotate": 4782,
      "Ġfar": 4783,
      "ĠAt": 4784,
      "salary": 4785,
      "ĠOne": 4786,
      "version": 4787,
      "Ġimmedi": 4788,
      "Ġbooks": 4789,
      "Ġrecommend": 4790,
      "pes": 4791,
      "Ġrecursively": 4792,
      "och": 4793,
      "Ġvisited": 4794,
      "Ġauthentication": 4795,
      "Ġrotation": 4796,
      "Ġ*=": 4797,
      "Ġcalculations": 4798,
      "lar": 4799,
      "Ġsubstrings": 4800,
      "Ġpermissions": 4801,
      "LI": 4802,
      "aged": 4803,
      "Ġcolors": 4804,
      "cret": 4805,
      "ony": 4806,
      "Ġ]": 4807,
      "Ġalign": 4808,
      "Ġpractices": 4809,
      "101": 4810,
      "Ġruntime": 4811,
      "Ġmix": 4812,
      "ĠSearch": 4813,
      "Ġexternal": 4814,
      "Ġdependencies": 4815,
      "Ġshared": 4816,
      "rating": 4817,
      "rict": 4818,
      "ĠStart": 4819,
      "Ġdivisor": 4820,
      "Ġhowever": 4821,
      "rant": 4822,
      "author": 4823,
      "dit": 4824,
      "Each": 4825,
      "\\\\": 4826,
      "Ġcompared": 4827,
      "Def": 4828,
      "frequency": 4829,
      "Ġscope": 4830,
      "Ġvariance": 4831,
      "Dep": 4832,
      "656": 4833,
      "Ġ`(": 4834,
      "Ġthings": 4835,
      "ARCH": 4836,
      "ĠSplit": 4837,
      "ĠPri": 4838,
      "conn": 4839,
      "Ġfocus": 4840,
      "Ġ\")": 4841,
      "Ġiterating": 4842,
      "Ġpay": 4843,
      "Ġecho": 4844,
      "Ġhyp": 4845,
      "Ġchart": 4846,
      "consist": 4847,
      "Ġstraight": 4848,
      "ĠCOUNT": 4849,
      "AC": 4850,
      "Ġcircle": 4851,
      "Ġsimultaneously": 4852,
      "Ġcorre": 4853,
      "UM": 4854,
      "rices": 4855,
      "domain": 4856,
      "Ġevaluation": 4857,
      "ots": 4858,
      "ĠApache": 4859,
      "Ġhandled": 4860,
      "ABLE": 4861,
      "Ġstyles": 4862,
      "Ġscr": 4863,
      "Ġanimations": 4864,
      "Ġpowerful": 4865,
      "zone": 4866,
      "urd": 4867,
      "ĠIdent": 4868,
      "istics": 4869,
      "ĠNetwork": 4870,
      "Ġassuming": 4871,
      "iles": 4872,
      "Ġsubarray": 4873,
      "ĠDec": 4874,
      "Pre": 4875,
      "press": 4876,
      "depth": 4877,
      "Ġ''.": 4878,
      "AN": 4879,
      "Ġ`$": 4880,
      "Ġadvance": 4881,
      "rr": 4882,
      "Ġsizes": 4883,
      "Ġfault": 4884,
      "Ġcombined": 4885,
      "cloud": 4886,
      "ĠExpected": 4887,
      "567": 4888,
      "pped": 4889,
      "Ġ500": 4890,
      "Ġorders": 4891,
      "Ġoverflow": 4892,
      "tag": 4893,
      "aring": 4894,
      "Ġimplements": 4895,
      "Ġparenthes": 4896,
      "execute": 4897,
      "Ġseconds": 4898,
      "ĠNumber": 4899,
      "Ġnone": 4900,
      "imilar": 4901,
      "CM": 4902,
      "Ġlever": 4903,
      "aker": 4904,
      "Ġlonger": 4905,
      "ostream": 4906,
      "cular": 4907,
      "display": 4908,
      "Ġtimestamp": 4909,
      "adata": 4910,
      "ĠLua": 4911,
      "orough": 4912,
      "Ġconsonants": 4913,
      "'}": 4914,
      "ĠStandard": 4915,
      "ĠAnalysis": 4916,
      "ards": 4917,
      "1000": 4918,
      "^{": 4919,
      "vari": 4920,
      "ists": 4921,
      "Ġphysics": 4922,
      "Ġentity": 4923,
      "Ġinfrastructure": 4924,
      "egin": 4925,
      "ĠTesting": 4926,
      "Point": 4927,
      "Ġpurch": 4928,
      "diff": 4929,
      "Get": 4930,
      "anged": 4931,
      "Ġsqrt": 4932,
      "request": 4933,
      "solving": 4934,
      "Ġsubject": 4935,
      "doc": 4936,
      "Ġyet": 4937,
      "Ġsums": 4938,
      "ĠValid": 4939,
      "ĠTime": 4940,
      "afka": 4941,
      "Ġcube": 4942,
      "dir": 4943,
      "Ġdid": 4944,
      "Ġthreshold": 4945,
      "JavaScript": 4946,
      "Torch": 4947,
      "Ġproduce": 4948,
      "ithub": 4949,
      "ĠDB": 4950,
      "ĠOutputs": 4951,
      "Ġassess": 4952,
      "ght": 4953,
      "osing": 4954,
      "customer": 4955,
      "Ġindicating": 4956,
      "forward": 4957,
      "Ġencoding": 4958,
      "actor": 4959,
      "Ġear": 4960,
      "Ġprefer": 4961,
      "Ġtaken": 4962,
      "ones": 4963,
      "car": 4964,
      "Ġresponsive": 4965,
      "Ġflow": 4966,
      "Ġana": 4967,
      "queue": 4968,
      "Ġsides": 4969,
      "Ġ<-": 4970,
      "ured": 4971,
      "Ġinfluence": 4972,
      "US": 4973,
      "args": 4974,
      "acters": 4975,
      "Ġachieved": 4976,
      "Ġdeviation": 4977,
      "ĠForm": 4978,
      "oder": 4979,
      "Ġinteractive": 4980,
      "stacles": 4981,
      "Ġaim": 4982,
      "Ġcho": 4983,
      "Select": 4984,
      "google": 4985,
      "Ġsystematic": 4986,
      "aborn": 4987,
      "OS": 4988,
      "Ġinconsist": 4989,
      "Ġdivisors": 4990,
      "Ġprim": 4991,
      "Str": 4992,
      "Ġdescribed": 4993,
      "Ġtried": 4994,
      "CV": 4995,
      "tered": 4996,
      "Ġprot": 4997,
      "Ġlogical": 4998,
      "Ġrisks": 4999,
      "Ġ()": 5000,
      "ĠPar": 5001,
      "Ġdevice": 5002,
      "Ġcurve": 5003,
      "ĠBeautiful": 5004,
      "Ġsensitive": 5005,
      "Ġfunda": 5006,
      "}:": 5007,
      "Ġutilize": 5008,
      "ĠGrid": 5009,
      "ĠDoe": 5010,
      "Ġscores": 5011,
      "Ġperformed": 5012,
      "veloper": 5013,
      "YY": 5014,
      "Ġpin": 5015,
      "ulated": 5016,
      "ĠMon": 5017,
      "iostream": 5018,
      "ĠFile": 5019,
      "Ġaddresses": 5020,
      "Ġfac": 5021,
      "Ġattempts": 5022,
      "services": 5023,
      "Ġsubsequence": 5024,
      "Gradient": 5025,
      "nother": 5026,
      "Ġconcurrent": 5027,
      "\"`": 5028,
      "ernel": 5029,
      "mooth": 5030,
      "Ġparticularly": 5031,
      "âĶĢâĶĢ": 5032,
      "plays": 5033,
      "Ġprices": 5034,
      "Ġcomparing": 5035,
      "hist": 5036,
      "Field": 5037,
      "(['": 5038,
      "Ġcoordinates": 5039,
      ":',": 5040,
      "Ġplayer": 5041,
      "Load": 5042,
      "Ġforward": 5043,
      "Ġsrc": 5044,
      "Ġcountry": 5045,
      "Ġplaces": 5046,
      "Ġlater": 5047,
      "ĠPyTorch": 5048,
      "Ġoffers": 5049,
      "ircle": 5050,
      "Ġaware": 5051,
      "Ġhidden": 5052,
      "Ġentities": 5053,
      ")/": 5054,
      "Ġzip": 5055,
      "ĠReturns": 5056,
      "Ġbeginning": 5057,
      "ĠAPIs": 5058,
      "IS": 5059,
      "Ġpse": 5060,
      "Ġapprox": 5061,
      "Ġlogs": 5062,
      "Dis": 5063,
      "Per": 5064,
      "ĠAV": 5065,
      "usters": 5066,
      "Ġtransformation": 5067,
      "ortunately": 5068,
      "ARCHAR": 5069,
      "Ġmargin": 5070,
      "container": 5071,
      "jor": 5072,
      "Ġprogress": 5073,
      "Ġindeed": 5074,
      "models": 5075,
      "straints": 5076,
      "Ġcloud": 5077,
      "gen": 5078,
      "Ġpermutations": 5079,
      "ster": 5080,
      "otes": 5081,
      "erge": 5082,
      "fl": 5083,
      "Ġcomplexities": 5084,
      "Ġstatistical": 5085,
      "Ġbecome": 5086,
      "Ġestim": 5087,
      "ĠTypeError": 5088,
      "ecurity": 5089,
      "Ġsituations": 5090,
      "Source": 5091,
      "Ġtransition": 5092,
      "Ġignore": 5093,
      "oding": 5094,
      "Ġsequential": 5095,
      "Ġalter": 5096,
      "Ġidentical": 5097,
      "utor": 5098,
      "ĠAzure": 5099,
      "Ġ45": 5100,
      "Ġgcd": 5101,
      "til": 5102,
      "Ġprinciple": 5103,
      "Ġbo": 5104,
      "ube": 5105,
      ",_": 5106,
      "Ġthorough": 5107,
      "Ġallowed": 5108,
      "}')": 5109,
      "cap": 5110,
      "defs": 5111,
      "Ġdates": 5112,
      "ĠSince": 5113,
      "ĠProcess": 5114,
      "Ġinfinite": 5115,
      "}$": 5116,
      "Request": 5117,
      "multip": 5118,
      "Ġdisc": 5119,
      "fortunately": 5120,
      "Ġsublist": 5121,
      "Ġpopular": 5122,
      "Ġchosen": 5123,
      "iling": 5124,
      "Ġexplic": 5125,
      "System": 5126,
      "World": 5127,
      "atter": 5128,
      "ensit": 5129,
      "Ġelimin": 5130,
      "ney": 5131,
      "iate": 5132,
      "icon": 5133,
      "ĠHadoop": 5134,
      "Ġ${": 5135,
      "cape": 5136,
      "ached": 5137,
      "Ġpriority": 5138,
      "Ġ90": 5139,
      "Ad": 5140,
      "Ġpopulation": 5141,
      "pyplot": 5142,
      "aws": 5143,
      "ĠSDK": 5144,
      "Ġbrowsers": 5145,
      "Description": 5146,
      "Ġplacehold": 5147,
      "Ġdra": 5148,
      "Inst": 5149,
      "Ġdisplays": 5150,
      "Ġglobal": 5151,
      "ffic": 5152,
      "Ġ199": 5153,
      "Ġmov": 5154,
      "Ġvolat": 5155,
      ",-": 5156,
      "open": 5157,
      "}`": 5158,
      "LT": 5159,
      "Ġends": 5160,
      "Ġgrade": 5161,
      "ĠTable": 5162,
      "ĠBu": 5163,
      "Ġwhite": 5164,
      "Content": 5165,
      "]{": 5166,
      "ĠRuby": 5167,
      "Ġwhose": 5168,
      "DD": 5169,
      "block": 5170,
      "indices": 5171,
      "Ġidentifies": 5172,
      "Soup": 5173,
      "URL": 5174,
      "Ġful": 5175,
      "ĠIter": 5176,
      "ĠMachine": 5177,
      "grees": 5178,
      "sa": 5179,
      "ogram": 5180,
      "term": 5181,
      "Ġapplying": 5182,
      "<>": 5183,
      "Ġinner": 5184,
      "Ġunderlying": 5185,
      "Creating": 5186,
      "Service": 5187,
      "zz": 5188,
      "Ġfront": 5189,
      "akes": 5190,
      "Ġmeticulously": 5191,
      "auss": 5192,
      "false": 5193,
      "*(": 5194,
      "Ġenable": 5195,
      "Div": 5196,
      "axis": 5197,
      "Ġcat": 5198,
      "edu": 5199,
      "Ġfibfib": 5200,
      "Math": 5201,
      "tract": 5202,
      "Ġthough": 5203,
      "Classifier": 5204,
      "non": 5205,
      "Ġguarantee": 5206,
      "Ġobj": 5207,
      "ensitivity": 5208,
      "essed": 5209,
      "ĠLine": 5210,
      "Ġpip": 5211,
      "Ġbin": 5212,
      "Ġunits": 5213,
      "ĠOtherwise": 5214,
      "ius": 5215,
      "aching": 5216,
      "ĠLanguage": 5217,
      "Ġindicates": 5218,
      "Ġoptimizer": 5219,
      "DataFrame": 5220,
      "Ġanom": 5221,
      "Ġdisplayed": 5222,
      "Ġoutliers": 5223,
      "ĠSome": 5224,
      "Ġdebugging": 5225,
      "ĠWhat": 5226,
      "radius": 5227,
      "ĠInstead": 5228,
      "Ġ[-": 5229,
      "Ġpreprocessing": 5230,
      "amount": 5231,
      "relu": 5232,
      "Ġchanged": 5233,
      "Year": 5234,
      "irtual": 5235,
      "substring": 5236,
      "Lower": 5237,
      "ĠMicrosoft": 5238,
      "positive": 5239,
      "Ġsite": 5240,
      "feature": 5241,
      "Ġinit": 5242,
      "localhost": 5243,
      "rea": 5244,
      "Ġclar": 5245,
      "Ġstrong": 5246,
      "Ġtranslate": 5247,
      "riendly": 5248,
      "ĠWord": 5249,
      "Ġscripts": 5250,
      "Ġdiscre": 5251,
      "Valid": 5252,
      "insensitive": 5253,
      "Ġdraw": 5254,
      "Ġdiscus": 5255,
      "alphabet": 5256,
      "Ġsv": 5257,
      "duplic": 5258,
      "Ġextensive": 5259,
      "Ġbottom": 5260,
      "Ġexplicit": 5261,
      "ulating": 5262,
      "Ġve": 5263,
      "Ġsubset": 5264,
      "orph": 5265,
      "Ġrates": 5266,
      "ĠStep": 5267,
      "metrics": 5268,
      "Ġrepository": 5269,
      "bre": 5270,
      "Ġpast": 5271,
      "Ġgoal": 5272,
      "Ġsynchron": 5273,
      "Ġcomputed": 5274,
      "layer": 5275,
      "ĠBelow": 5276,
      "update": 5277,
      "Ġlimited": 5278,
      "Ġnth": 5279,
      "WriteLine": 5280,
      "Ġever": 5281,
      "Ġsituation": 5282,
      "OP": 5283,
      "Using": 5284,
      "Ġlevels": 5285,
      "Ġreally": 5286,
      "osition": 5287,
      "Ġclassifier": 5288,
      "Ġconfusion": 5289,
      "ios": 5290,
      "dev": 5291,
      "Ġmanipulate": 5292,
      "Ġimproved": 5293,
      "Ġchecked": 5294,
      "two": 5295,
      "ING": 5296,
      "From": 5297,
      "Ġphase": 5298,
      "mark": 5299,
      "amily": 5300,
      "ĠDet": 5301,
      "Ġcommit": 5302,
      "Ġobstacles": 5303,
      "aussian": 5304,
      "Ġdest": 5305,
      "Ġpeople": 5306,
      "`).": 5307,
      "Ġprojects": 5308,
      "Ġtranslation": 5309,
      "roller": 5310,
      "Ġexplor": 5311,
      "ĠImport": 5312,
      "Acc": 5313,
      "smallest": 5314,
      "kens": 5315,
      "expected": 5316,
      "ESC": 5317,
      "gree": 5318,
      "%\"": 5319,
      "Column": 5320,
      "Net": 5321,
      "Ġpush": 5322,
      "ropy": 5323,
      "ribution": 5324,
      "hash": 5325,
      "ĠWrite": 5326,
      "rum": 5327,
      "Ġgrow": 5328,
      "ugment": 5329,
      "Ġmodulo": 5330,
      "OD": 5331,
      "9978": 5332,
      "Ġactions": 5333,
      "ĠBeautifulSoup": 5334,
      "Ġvisualization": 5335,
      "Ġfunctionalities": 5336,
      "Ġsmooth": 5337,
      "Ġtraverse": 5338,
      "Equ": 5339,
      "Ġbits": 5340,
      "Ġapplies": 5341,
      "Assuming": 5342,
      "sl": 5343,
      "Ġoutcome": 5344,
      "Ġeluc": 5345,
      "Ġconsum": 5346,
      "sign": 5347,
      "Ġstatements": 5348,
      "Ġflexible": 5349,
      "Ġsql": 5350,
      "uffle": 5351,
      "Return": 5352,
      "inf": 5353,
      "icate": 5354,
      "Ġ')": 5355,
      "arest": 5356,
      "validate": 5357,
      "cos": 5358,
      "Ġinstant": 5359,
      "Ġdemonstrate": 5360,
      "Ġshare": 5361,
      "Ġdefining": 5362,
      "ĠVARCHAR": 5363,
      "tools": 5364,
      "nown": 5365,
      "que": 5366,
      "ibrary": 5367,
      "Ġtechnology": 5368,
      "orn": 5369,
      "Ġremainder": 5370,
      "AME": 5371,
      "Ġ$(": 5372,
      "Ġdocuments": 5373,
      "employee": 5374,
      "GL": 5375,
      "oll": 5376,
      "icles": 5377,
      "Ġsubmit": 5378,
      "Ġbirth": 5379,
      "cel": 5380,
      "ĠTra": 5381,
      "But": 5382,
      "unn": 5383,
      "odb": 5384,
      "Ġ!==": 5385,
      "ĠAny": 5386,
      "ql": 5387,
      "Ġslight": 5388,
      "Ġquality": 5389,
      "alk": 5390,
      "poses": 5391,
      "Ġencrypted": 5392,
      "ĠDesign": 5393,
      "Ġbubble": 5394,
      "validation": 5395,
      "ĠArrayList": 5396,
      "Result": 5397,
      ".*;": 5398,
      "Ġintegrity": 5399,
      "high": 5400,
      "ĠDist": 5401,
      "Ġdefinition": 5402,
      "convert": 5403,
      "Ġmoder": 5404,
      "active": 5405,
      "\"}": 5406,
      "Ġmoving": 5407,
      "enance": 5408,
      "Ġshap": 5409,
      "---:": 5410,
      "ident": 5411,
      "Ġ`-": 5412,
      "images": 5413,
      "Ġthink": 5414,
      "Read": 5415,
      "Ġtrained": 5416,
      "Ġtowards": 5417,
      "Ġuniverse": 5418,
      "ium": 5419,
      "GROUP": 5420,
      "Ġsales": 5421,
      "ump": 5422,
      "icy": 5423,
      "Ġ(-": 5424,
      "ĠJohn": 5425,
      "TE": 5426,
      "Ġpages": 5427,
      "Ġtrip": 5428,
      "Ġcome": 5429,
      "pression": 5430,
      "Ġintegrate": 5431,
      ";,&#": 5432,
      "frac": 5433,
      "()`,": 5434,
      "licity": 5435,
      "ĠReplace": 5436,
      "mble": 5437,
      "ought": 5438,
      "7761": 5439,
      "days": 5440,
      "sk": 5441,
      "Ġtail": 5442,
      "export": 5443,
      "aves": 5444,
      "}{": 5445,
      "ditional": 5446,
      "irectory": 5447,
      "Ġmodules": 5448,
      "Ġrating": 5449,
      "CSS": 5450,
      "ĠBigQuery": 5451,
      "ĠInteger": 5452,
      "Ġvideo": 5453,
      "Up": 5454,
      "Ġexecuting": 5455,
      "Ġnltk": 5456,
      "ĠâĢĵ": 5457,
      "Ġremains": 5458,
      "0001": 5459,
      "stream": 5460,
      "trained": 5461,
      "CREATE": 5462,
      "Print": 5463,
      "scale": 5464,
      "Ġ33": 5465,
      "ĠDynamoDB": 5466,
      "!--": 5467,
      "delete": 5468,
      "Ġcriteria": 5469,
      "ĠTuple": 5470,
      "Over": 5471,
      "bound": 5472,
      "Ġparallel": 5473,
      "Ġintended": 5474,
      "Ġoverfitting": 5475,
      "divis": 5476,
      "fetch": 5477,
      "Ġabst": 5478,
      "Ġdegrees": 5479,
      "Image": 5480,
      "Ġonline": 5481,
      "Ġrank": 5482,
      "iveness": 5483,
      "eta": 5484,
      "factorial": 5485,
      "Ã³": 5486,
      "used": 5487,
      "ĠGit": 5488,
      "Ġkeras": 5489,
      "%;": 5490,
      "Ġclassical": 5491,
      ".')": 5492,
      "quire": 5493,
      "Ġheav": 5494,
      "Ġcategories": 5495,
      "AS": 5496,
      "ĠCSV": 5497,
      "Ġforms": 5498,
      "yy": 5499,
      "osit": 5500,
      "Ġcover": 5501,
      "ĠMod": 5502,
      "ueue": 5503,
      "Ġfruits": 5504,
      "generate": 5505,
      "ilter": 5506,
      "\"));": 5507,
      "Ġgenerator": 5508,
      "Size": 5509,
      "Ġten": 5510,
      "reng": 5511,
      "Ġbusiness": 5512,
      "Ġhum": 5513,
      "though": 5514,
      "Ġpipeline": 5515,
      "Ġtreat": 5516,
      "oost": 5517,
      "Ġ80": 5518,
      "Ġhighlight": 5519,
      "oriz": 5520,
      "ĠDESC": 5521,
      "Ġleg": 5522,
      "tn": 5523,
      "Ġ\"$": 5524,
      "mask": 5525,
      "ĠSpark": 5526,
      "Ġseaborn": 5527,
      "Ġsimplicity": 5528,
      "category": 5529,
      "Log": 5530,
      "Ġarbit": 5531,
      "Ġlock": 5532,
      "github": 5533,
      "Ġ<!--": 5534,
      "Ġmatching": 5535,
      "343": 5536,
      "aN": 5537,
      "ĠWhile": 5538,
      "Ġcos": 5539,
      "ĠHence": 5540,
      "Ġdevelopers": 5541,
      "Ġalphabetical": 5542,
      "xx": 5543,
      "distance": 5544,
      "Ġlogin": 5545,
      "Ġorigin": 5546,
      "Function": 5547,
      "mm": 5548,
      "pet": 5549,
      "ĠOpt": 5550,
      "Ġterminal": 5551,
      "Ġheader": 5552,
      "Ġprocedures": 5553,
      "Att": 5554,
      "normal": 5555,
      "Ġplug": 5556,
      "Ġshortest": 5557,
      "/*": 5558,
      "Ġstraightforward": 5559,
      "inux": 5560,
      "Builder": 5561,
      "Inter": 5562,
      "ĠHe": 5563,
      "Ġserverless": 5564,
      "Ġinsight": 5565,
      "operations": 5566,
      "unk": 5567,
      "avor": 5568,
      "aster": 5569,
      "Ġworst": 5570,
      "MS": 5571,
      "Ġloading": 5572,
      "Ġconcepts": 5573,
      "Ġupdating": 5574,
      "ĠRemove": 5575,
      "Ab": 5576,
      "oto": 5577,
      "ride": 5578,
      "Ġrespons": 5579,
      "Ġ`\"": 5580,
      "Stack": 5581,
      "react": 5582,
      "amless": 5583,
      "Ġskills": 5584,
      "IST": 5585,
      "Ġmethodologies": 5586,
      "Email": 5587,
      "cer": 5588,
      "nested": 5589,
      "Ġtraffic": 5590,
      "Ġworth": 5591,
      ")-": 5592,
      "just": 5593,
      "Ġaxis": 5594,
      "Ġresearch": 5595,
      "Ġmarks": 5596,
      "Keep": 5597,
      "counter": 5598,
      "isions": 5599,
      "PU": 5600,
      "bles": 5601,
      "wo": 5602,
      "ĠImage": 5603,
      "Ġgeometric": 5604,
      "anks": 5605,
      "Row": 5606,
      "device": 5607,
      "ĠSci": 5608,
      "ĠCor": 5609,
      "Ġflatten": 5610,
      ")`.": 5611,
      "EG": 5612,
      "Ġinstruction": 5613,
      "Ġawait": 5614,
      "Ġrelative": 5615,
      "Ġessentially": 5616,
      "ascii": 5617,
      "Ġcritical": 5618,
      "Ġseparated": 5619,
      "built": 5620,
      "columns": 5621,
      "Ġcorrection": 5622,
      "Matrix": 5623,
      "ĠCar": 5624,
      "Ġmatrices": 5625,
      "bool": 5626,
      "vowel": 5627,
      "6569": 5628,
      "Ġnatural": 5629,
      "inkedList": 5630,
      "Ph": 5631,
      "ĠML": 5632,
      "ips": 5633,
      "Ġ34": 5634,
      "never": 5635,
      "Ġallowing": 5636,
      "Ġembedded": 5637,
      "late": 5638,
      "figure": 5639,
      "Ġsubstit": 5640,
      "Order": 5641,
      "times": 5642,
      "[$": 5643,
      "nomial": 5644,
      "Ġproceed": 5645,
      "Ġfeas": 5646,
      "Ġadjac": 5647,
      "iform": 5648,
      "perty": 5649,
      "character": 5650,
      "files": 5651,
      "Ġparentheses": 5652,
      "ramid": 5653,
      "phone": 5654,
      "Ġconsists": 5655,
      "Ġdifficulty": 5656,
      "Ġminutes": 5657,
      "Ġutilized": 5658,
      "Ġencoded": 5659,
      "Ġcand": 5660,
      "Ġvolatility": 5661,
      "correct": 5662,
      "<<": 5663,
      "ĠURLs": 5664,
      "Ġmodern": 5665,
      "Ġanything": 5666,
      "Ġseamless": 5667,
      "Ġangle": 5668,
      "AND": 5669,
      "]`.": 5670,
      "average": 5671,
      "Ġapproxim": 5672,
      "ĠDi": 5673,
      "Formulate": 5674,
      "Cal": 5675,
      "Ġcontact": 5676,
      "ynchron": 5677,
      "Comple": 5678,
      "blob": 5679,
      "ĠTABLE": 5680,
      "Ġtrend": 5681,
      "bert": 5682,
      "urch": 5683,
      "Ġsumm": 5684,
      "Ġcompil": 5685,
      "Ġri": 5686,
      "phrase": 5687,
      "Ġincorporating": 5688,
      "squared": 5689,
      "pa": 5690,
      "arm": 5691,
      "Ġcounting": 5692,
      "month": 5693,
      "styles": 5694,
      "Ġtranslated": 5695,
      "sembly": 5696,
      "Ġimmediately": 5697,
      "Ġreading": 5698,
      "Ġencountered": 5699,
      "department": 5700,
      "Ġthrows": 5701,
      "party": 5702,
      "ĠAcc": 5703,
      "series": 5704,
      "Student": 5705,
      "Ġswaps": 5706,
      "Ġrecall": 5707,
      ".\");": 5708,
      "cs": 5709,
      "sample": 5710,
      "Ġindexes": 5711,
      "ierarch": 5712,
      "></": 5713,
      "Ġreflect": 5714,
      "Ġstatistics": 5715,
      "Ġfolder": 5716,
      "pow": 5717,
      "ĠDem": 5718,
      "Emb": 5719,
      "flo": 5720,
      "Ġtuning": 5721,
      "Ġos": 5722,
      "ĠLast": 5723,
      "begin": 5724,
      "mount": 5725,
      "Ġderiv": 5726,
      "Ġprotocols": 5727,
      "ayes": 5728,
      "ĠEmployee": 5729,
      "Ġfulfill": 5730,
      "Ġcompany": 5731,
      "Ġcontinues": 5732,
      "Ġaggregate": 5733,
      "bal": 5734,
      "Ġemploying": 5735,
      "ĠThus": 5736,
      "Ġexhib": 5737,
      "friendly": 5738,
      "ttp": 5739,
      "GB": 5740,
      "Ġkeeping": 5741,
      "{'": 5742,
      "Ġzeros": 5743,
      "Ġfundamental": 5744,
      "env": 5745,
      "ĠStudent": 5746,
      "Hand": 5747,
      "rupt": 5748,
      "losed": 5749,
      "ĠEnt": 5750,
      "Ġchallenging": 5751,
      "ancial": 5752,
      "vectors": 5753,
      "Ġalphabets": 5754,
      "Ġcells": 5755,
      "NAME": 5756,
      "roke": 5757,
      "Ġlinks": 5758,
      "ae": 5759,
      "Ġemphas": 5760,
      "Ġdecrypt": 5761,
      "Button": 5762,
      "orig": 5763,
      "ĠEvalu": 5764,
      "Ġcredentials": 5765,
      "Ġcollect": 5766,
      "RIM": 5767,
      "Ġmill": 5768,
      "draw": 5769,
      "ĠIS": 5770,
      "Ġtell": 5771,
      "Ġparsing": 5772,
      "Ġcircular": 5773,
      ";`": 5774,
      "Make": 5775,
      "UI": 5776,
      "jection": 5777,
      "ensity": 5778,
      "EF": 5779,
      "Ġstage": 5780,
      "igm": 5781,
      "ools": 5782,
      "ience": 5783,
      "alth": 5784,
      "Ġarrange": 5785,
      "Ġestablish": 5786,
      "elected": 5787,
      "pol": 5788,
      "Ġintern": 5789,
      "Ġnavigation": 5790,
      "\\,": 5791,
      "ateway": 5792,
      "()`.": 5793,
      "Ġcompile": 5794,
      "ĠKafka": 5795,
      "Ġheapq": 5796,
      "ĠDatabase": 5797,
      "Lastly": 5798,
      "cell": 5799,
      "nections": 5800,
      "atives": 5801,
      "Generate": 5802,
      "scores": 5803,
      "Ġshows": 5804,
      "Gener": 5805,
      "Ġordered": 5806,
      "iented": 5807,
      "Ġpossess": 5808,
      ".'": 5809,
      "Ġseparately": 5810,
      "Ġgraphics": 5811,
      "Ġpurposes": 5812,
      "Ġincreases": 5813,
      "anging": 5814,
      "ĠIN": 5815,
      "leton": 5816,
      "tle": 5817,
      "omen": 5818,
      "Ġvariety": 5819,
      "Listener": 5820,
      "pairs": 5821,
      "Ġ64": 5822,
      "vis": 5823,
      "Ġhad": 5824,
      "mode": 5825,
      "ues": 5826,
      "Ġlowest": 5827,
      "Ġregardless": 5828,
      "ĠREST": 5829,
      "Scaler": 5830,
      "compile": 5831,
      "Ġtrees": 5832,
      "Ġfigure": 5833,
      "Ġprinting": 5834,
      "Ġbrackets": 5835,
      "Ġindependent": 5836,
      "ĠOCR": 5837,
      "[[": 5838,
      "gument": 5839,
      "ĠChar": 5840,
      "herence": 5841,
      "Ġleveraging": 5842,
      "Ġspe": 5843,
      "rust": 5844,
      "Ġsummary": 5845,
      "Ġflaw": 5846,
      "Ġdetermines": 5847,
      "Component": 5848,
      "ED": 5849,
      "lict": 5850,
      "Ġaddressing": 5851,
      "zA": 5852,
      "8954": 5853,
      "Ġsupported": 5854,
      "Ġdoub": 5855,
      "Ġoutside": 5856,
      "swap": 5857,
      "Ġthing": 5858,
      "ĠTri": 5859,
      "oston": 5860,
      "Ġassigned": 5861,
      "ourses": 5862,
      "Ġinitially": 5863,
      "Ġtempor": 5864,
      "ĠService": 5865,
      "ctal": 5866,
      "Ġjour": 5867,
      "Ġcomputations": 5868,
      "ighbors": 5869,
      "occ": 5870,
      "Ġprompt": 5871,
      "dial": 5872,
      "Ġ35": 5873,
      "Dig": 5874,
      "echo": 5875,
      "Ġwhites": 5876,
      "Start": 5877,
      "Ġunders": 5878,
      "Ġtwice": 5879,
      "Ġsubrout": 5880,
      "Ġcausing": 5881,
      "Ġcareful": 5882,
      "panc": 5883,
      "Ġfiltered": 5884,
      "bb": 5885,
      "Ġoverl": 5886,
      "=&#": 5887,
      "Ġfilled": 5888,
      "Ġhistory": 5889,
      "Ġhappen": 5890,
      "Ġmoves": 5891,
      "ĠMark": 5892,
      "Ġhypot": 5893,
      "Ġ\";": 5894,
      "formatics": 5895,
      "Ġanyone": 5896,
      "Ġpub": 5897,
      "Ġpick": 5898,
      "Ġmapping": 5899,
      "accuracy": 5900,
      "ĠYork": 5901,
      "ade": 5902,
      "ids": 5903,
      "ĠDevelop": 5904,
      "Ġnetworks": 5905,
      "Ġinsertion": 5906,
      "Ġarbitr": 5907,
      "vided": 5908,
      "otion": 5909,
      "pg": 5910,
      "copg": 5911,
      "Ġimportance": 5912,
      "Eng": 5913,
      "ffer": 5914,
      "Ġmaintenance": 5915,
      "MM": 5916,
      "aust": 5917,
      "{}": 5918,
      "ĠPh": 5919,
      "Ġspl": 5920,
      "ommod": 5921,
      "Ġscaling": 5922,
      "necess": 5923,
      "arding": 5924,
      "Ġreasons": 5925,
      "tics": 5926,
      "agn": 5927,
      "Constraints": 5928,
      "Ġregion": 5929,
      "Ġhoriz": 5930,
      "build": 5931,
      "make": 5932,
      "rn": 5933,
      "Ġslightly": 5934,
      "IG": 5935,
      "Ġtab": 5936,
      "Ġpointers": 5937,
      "Ġrandomly": 5938,
      "ĠKEY": 5939,
      "Craft": 5940,
      "++){": 5941,
      "Ġboto": 5942,
      "Ġclusters": 5943,
      "Ġtransformed": 5944,
      "ĠUpdate": 5945,
      "features": 5946,
      ")),": 5947,
      "Ġpreced": 5948,
      "Ġskew": 5949,
      "]}": 5950,
      "ĠSupp": 5951,
      "ilit": 5952,
      "Ġparad": 5953,
      "event": 5954,
      "ĠEngine": 5955,
      "Ġoutline": 5956,
      "Ġelucidate": 5957,
      "=['": 5958,
      "uous": 5959,
      "Ġslice": 5960,
      "ished": 5961,
      "igate": 5962,
      "API": 5963,
      "field": 5964,
      "ĠTraining": 5965,
      "lishes": 5966,
      "datetime": 5967,
      "Ġindexing": 5968,
      "ĠProvide": 5969,
      "Token": 5970,
      "Ġconfirm": 5971,
      "writ": 5972,
      "Ġextends": 5973,
      "Words": 5974,
      "Ġmeets": 5975,
      "ole": 5976,
      "Ġut": 5977,
      "Ġtemperature": 5978,
      "Ġcategorical": 5979,
      "RU": 5980,
      "atory": 5981,
      "Ġda": 5982,
      "ĠASP": 5983,
      "chemy": 5984,
      "rice": 5985,
      "ĠJavascript": 5986,
      "Ġinvolved": 5987,
      "Ġholds": 5988,
      "rin": 5989,
      "cursor": 5990,
      "Ġkeeps": 5991,
      "bra": 5992,
      "Ġfraction": 5993,
      "align": 5994,
      "Ġvi": 5995,
      "Ġgoogle": 5996,
      "cost": 5997,
      "Ġpercentage": 5998,
      "Ġexpress": 5999,
      "ĠManagement": 6000,
      "Ġexhaust": 6001,
      "ĠHandle": 6002,
      "Ġcipher": 6003,
      "Ġ36": 6004,
      "Firstly": 6005,
      "Ġmig": 6006,
      "param": 6007,
      "Ġconsideration": 6008,
      "Ġshown": 6009,
      "Arr": 6010,
      "Ġformats": 6011,
      "location": 6012,
      "Ġshapes": 6013,
      "Ġlif": 6014,
      "Ġ2000": 6015,
      "Regression": 6016,
      "ĠThat": 6017,
      "ulations": 6018,
      "Ġidx": 6019,
      "ĠInteg": 6020,
      "Ġaudio": 6021,
      "ĠSS": 6022,
      "Ġadmin": 6023,
      "Ġnecessitating": 6024,
      "Context": 6025,
      "force": 6026,
      "dog": 6027,
      "Ġmodifications": 6028,
      "Ġ[];": 6029,
      "Ġvarying": 6030,
      "Ġsubroutine": 6031,
      "Ġfall": 6032,
      "utin": 6033,
      "exp": 6034,
      "ellig": 6035,
      "Ġrectangle": 6036,
      "imits": 6037,
      "Ġunnecess": 6038,
      "points": 6039,
      "longest": 6040,
      "Ġinconsistencies": 6041,
      "ĠGenerate": 6042,
      "Ġbackup": 6043,
      "Ġplaceholder": 6044,
      "Ġfeasible": 6045,
      "Ġconnected": 6046,
      "Ġpix": 6047,
      "Ġdevices": 6048,
      "STM": 6049,
      "End": 6050,
      "ders": 6051,
      "ene": 6052,
      "Ġequations": 6053,
      "998": 6054,
      ")\"": 6055,
      "Ġ123": 6056,
      "Ġheaders": 6057,
      "Ġapproaches": 6058,
      "ingu": 6059,
      "Ġbond": 6060,
      "Ġaccommod": 6061,
      "Quantum": 6062,
      "Ġclicked": 6063,
      "Ġcompatibility": 6064,
      "rength": 6065,
      "gcd": 6066,
      "mic": 6067,
      "rd": 6068,
      "ĠOver": 6069,
      "complex": 6070,
      "IMIT": 6071,
      "Alph": 6072,
      "datasets": 6073,
      "Ġcapture": 6074,
      "Dense": 6075,
      "ollow": 6076,
      "then": 6077,
      "ĠComple": 6078,
      "EX": 6079,
      "OUR": 6080,
      "Ġtechnologies": 6081,
      "largest": 6082,
      "Ġvast": 6083,
      "Ġ\");": 6084,
      "Change": 6085,
      "duplicates": 6086,
      "Ġannot": 6087,
      "Ġplatforms": 6088,
      "bits": 6089,
      "Ġduration": 6090,
      "ĠAndroid": 6091,
      "Ġinterpretation": 6092,
      "oriented": 6093,
      "lastic": 6094,
      "Stream": 6095,
      "ĠExpl": 6096,
      "dim": 6097,
      "reme": 6098,
      "quential": 6099,
      "Ġasc": 6100,
      "Ġappropriately": 6101,
      "ĠAlways": 6102,
      "merge": 6103,
      "SearchCV": 6104,
      "Ġreality": 6105,
      "Ġnavigate": 6106,
      "ĠDepending": 6107,
      "Min": 6108,
      "Ġ);": 6109,
      "(){": 6110,
      "Ġleap": 6111,
      "('/": 6112,
      "flat": 6113,
      "Ġaugment": 6114,
      "Password": 6115,
      "sume": 6116,
      "Rec": 6117,
      "Even": 6118,
      "Ġidentified": 6119,
      "Ġenhanced": 6120,
      "Ġslic": 6121,
      "izations": 6122,
      "Ġcosts": 6123,
      "ĠInclude": 6124,
      "roman": 6125,
      "Ġoperators": 6126,
      "256": 6127,
      "Ġjourney": 6128,
      "toString": 6129,
      "Ġprofound": 6130,
      "Ġ\"\\": 6131,
      "These": 6132,
      "appy": 6133,
      "udo": 6134,
      "Ġdiscrepanc": 6135,
      "[(": 6136,
      "params": 6137,
      "Ġ255": 6138,
      "Moreover": 6139,
      "Ġmajor": 6140,
      "Mon": 6141,
      "{\"": 6142,
      "stdio": 6143,
      "Ġlab": 6144,
      "ti": 6145,
      "sect": 6146,
      "Ġdetail": 6147,
      "Ġtries": 6148,
      "Ġpossibly": 6149,
      "antity": 6150,
      "Ġdri": 6151,
      "ĠUN": 6152,
      "Ġtherefore": 6153,
      "2239": 6154,
      "LP": 6155,
      "employees": 6156,
      "ordered": 6157,
      "Ġcomment": 6158,
      "Ġareas": 6159,
      "128": 6160,
      "1046": 6161,
      "Submit": 6162,
      "mith": 6163,
      "olutional": 6164,
      "Ġexceeds": 6165,
      "_=": 6166,
      "tf": 6167,
      "ĠDeploy": 6168,
      "Ġcommonly": 6169,
      "Ġrepeat": 6170,
      "Ġdependent": 6171,
      "Ġexpand": 6172,
      "Ġparticip": 6173,
      "Ġprivacy": 6174,
      "Ġpredictive": 6175,
      "span": 6176,
      "ĠTransform": 6177,
      "circle": 6178,
      "Ġaspects": 6179,
      "angular": 6180,
      "(\"%": 6181,
      "ĠUS": 6182,
      "|:--------------------------------": 6183,
      "CP": 6184,
      "job": 6185,
      "special": 6186,
      "results": 6187,
      "While": 6188,
      "gener": 6189,
      "umps": 6190,
      "Ġfoc": 6191,
      "Ġidentifier": 6192,
      "ossible": 6193,
      "Ġbehind": 6194,
      "Ġadvantage": 6195,
      ":</": 6196,
      "method": 6197,
      "''": 6198,
      "real": 6199,
      "732": 6200,
      "Ġ})": 6201,
      "Click": 6202,
      "`),": 6203,
      "Ġcm": 6204,
      "Ġvirtual": 6205,
      "ĠRec": 6206,
      "avg": 6207,
      "Ġfrequencies": 6208,
      "ranch": 6209,
      "Ġevolution": 6210,
      "fold": 6211,
      "known": 6212,
      "Ġentangled": 6213,
      "Info": 6214,
      "Ġdeveloping": 6215,
      "Counter": 6216,
      "(?": 6217,
      "\\.": 6218,
      "best": 6219,
      "urations": 6220,
      "Ġunexpected": 6221,
      "Ġparticles": 6222,
      "ucas": 6223,
      "Ġpalindromes": 6224,
      "VAL": 6225,
      "Ġlcm": 6226,
      "ĠAccess": 6227,
      "sions": 6228,
      "Ġconflict": 6229,
      "books": 6230,
      "aved": 6231,
      ")).": 6232,
      "ĠStorage": 6233,
      "Server": 6234,
      "Ġpsy": 6235,
      "ulates": 6236,
      "endar": 6237,
      "Ġscient": 6238,
      "Ġconsistency": 6239,
      "Ġdeeply": 6240,
      "ĠLinear": 6241,
      "Book": 6242,
      "mong": 6243,
      "characters": 6244,
      "Ġenvironments": 6245,
      "Ġconnections": 6246,
      "Ġstud": 6247,
      "Thread": 6248,
      "Ġreducing": 6249,
      "Ġsensitivity": 6250,
      "Ġalphabetic": 6251,
      "bot": 6252,
      "Ġassumptions": 6253,
      "Ġprior": 6254,
      "Ġrequested": 6255,
      "ĠIterate": 6256,
      "icated": 6257,
      "9989": 6258,
      "Embark": 6259,
      "ĠMap": 6260,
      "ĠApplication": 6261,
      "Ġinformatics": 6262,
      "Ġprotect": 6263,
      "AV": 6264,
      "zip": 6265,
      "Ġfet": 6266,
      "Ġoperating": 6267,
      "Ġrobustness": 6268,
      "ĠRegular": 6269,
      "ĠIdentify": 6270,
      "Ġundefined": 6271,
      "mmet": 6272,
      "Ġshell": 6273,
      "Ġconduct": 6274,
      "ĠBinary": 6275,
      "Ġblocks": 6276,
      "Ġblack": 6277,
      "Ġcarry": 6278,
      "ĠInstall": 6279,
      "875": 6280,
      "Ġtransfer": 6281,
      "tic": 6282,
      "Ġraised": 6283,
      "Ġlooks": 6284,
      "Child": 6285,
      "Ġfinancial": 6286,
      "Ġproport": 6287,
      "Ġdividing": 6288,
      "Ġtraditional": 6289,
      "Ġcharacteristics": 6290,
      "ĠPoint": 6291,
      "access": 6292,
      "Web": 6293,
      "Ġlatest": 6294,
      "Ġmechanisms": 6295,
      "floor": 6296,
      "tion": 6297,
      "Ġentered": 6298,
      "rases": 6299,
      "Ġscrutin": 6300,
      "ĠBuild": 6301,
      "OC": 6302,
      "Run": 6303,
      "riginal": 6304,
      "Ġprofession": 6305,
      "filename": 6306,
      "Ġgot": 6307,
      "artments": 6308,
      "details": 6309,
      "Ġtemplate": 6310,
      "Ġextreme": 6311,
      "Ġproficient": 6312,
      "Ġobserv": 6313,
      "Manager": 6314,
      "isalpha": 6315,
      "Ġhierarch": 6316,
      "Ġ'#": 6317,
      "]):": 6318,
      "ising": 6319,
      "dictionary": 6320,
      "ĠCompute": 6321,
      "ĠSecurity": 6322,
      "Ġtrigger": 6323,
      "Total": 6324,
      "Ġhol": 6325,
      "Dict": 6326,
      "Ġ'%": 6327,
      "letter": 6328,
      "ĠMin": 6329,
      "account": 6330,
      "ological": 6331,
      "Fe": 6332,
      "Ġmob": 6333,
      "Ġinteractions": 6334,
      "ology": 6335,
      "Ġfiltering": 6336,
      "Ġmit": 6337,
      "Sequence": 6338,
      "Ġarbitrary": 6339,
      "Ġunnecessary": 6340,
      "ulner": 6341,
      "Ġmonitor": 6342,
      "->>": 6343,
      "Ġisol": 6344,
      "apped": 6345,
      "sche": 6346,
      "Ob": 6347,
      "cr": 6348,
      "big": 6349,
      "Ġcard": 6350,
      "Ġhyperparameters": 6351,
      "Ġfacilit": 6352,
      "Ġexploration": 6353,
      "Sp": 6354,
      "Ġfailed": 6355,
      "Ġgreatest": 6356,
      "ĠFirebase": 6357,
      "Ġbeneficial": 6358,
      "endl": 6359,
      "astic": 6360,
      "Ġfrequently": 6361,
      "Ġedges": 6362,
      "Ġhttp": 6363,
      "Ġalloc": 6364,
      "ocratic": 6365,
      "conson": 6366,
      "arrange": 6367,
      "Ġimg": 6368,
      "Py": 6369,
      "mber": 6370,
      "Ġinclusive": 6371,
      "Ġtransforms": 6372,
      "Ġcombine": 6373,
      "Ġnorm": 6374,
      "Ġharn": 6375,
      "aven": 6376,
      "Ġselects": 6377,
      "Ġprom": 6378,
      "usic": 6379,
      "specific": 6380,
      "JOIN": 6381,
      "ein": 6382,
      "filt": 6383,
      "Ġtransformations": 6384,
      "Dec": 6385,
      "ARY": 6386,
      "heit": 6387,
      "1111": 6388,
      ")`,": 6389,
      "Hash": 6390,
      "Ġsupplied": 6391,
      "alphanumeric": 6392,
      "Employee": 6393,
      "fol": 6394,
      "encode": 6395,
      "Ġkernel": 6396,
      "Ġtraversal": 6397,
      "nav": 6398,
      "Ġcra": 6399,
      "iris": 6400,
      "Ġassist": 6401,
      "task": 6402,
      "ĠPart": 6403,
      "Ġnearest": 6404,
      "ipy": 6405,
      "Ġstarted": 6406,
      "Ġderived": 6407,
      "ahren": 6408,
      "Ġepochs": 6409,
      "cribe": 6410,
      "Ġiterative": 6411,
      "catch": 6412,
      "Ġattacks": 6413,
      "ahrenheit": 6414,
      "stri": 6415,
      "integ": 6416,
      "Ġsty": 6417,
      "Ġresolution": 6418,
      "Ġsolves": 6419,
      "Ġtechnological": 6420,
      ":\\": 6421,
      "Back": 6422,
      "IF": 6423,
      "Ġsolving": 6424,
      "crypt": 6425,
      "lin": 6426,
      "Ġinher": 6427,
      "ĠHigh": 6428,
      "ĠEC": 6429,
      "Ġmobile": 6430,
      "Ġserial": 6431,
      "ĠScal": 6432,
      "Ġsense": 6433,
      "Ġ'-": 6434,
      "Ġmicroservices": 6435,
      ")[": 6436,
      "]])": 6437,
      "gb": 6438,
      "ĠElastic": 6439,
      "Ġsolid": 6440,
      "Ġformatted": 6441,
      "ĠNeural": 6442,
      "blue": 6443,
      "Part": 6444,
      "Ġpow": 6445,
      "Ġmetadata": 6446,
      "ikit": 6447,
      "Ġweighted": 6448,
      "Ġtit": 6449,
      "Ġnil": 6450,
      "ĠRemember": 6451,
      "ĠTry": 6452,
      "Ġtopic": 6453,
      "ĠjQuery": 6454,
      "Te": 6455,
      "git": 6456,
      "tensor": 6457,
      "omic": 6458,
      "Ġdesignated": 6459,
      "Ġhelpful": 6460,
      "Ġeverything": 6461,
      "|---:": 6462,
      "ĠCPU": 6463,
      "Ġtextual": 6464,
      "Ġsafe": 6465,
      "-%": 6466,
      "reduce": 6467,
      "atus": 6468,
      "Ġreferences": 6469,
      "Ġhurd": 6470,
      "ĠPerson": 6471,
      "ĠIndex": 6472,
      "ĠLinux": 6473,
      "Ġcontrols": 6474,
      "ĠDemocratic": 6475,
      "Ġcomputers": 6476,
      "Ġcv": 6477,
      "Ġstroke": 6478,
      "findall": 6479,
      "Ġrectifying": 6480,
      "Ġcompet": 6481,
      "Ġrounded": 6482,
      "Forest": 6483,
      "vate": 6484,
      "Ġaccessible": 6485,
      "Ġrefers": 6486,
      "Ġvisualize": 6487,
      "Ġcircum": 6488,
      "OW": 6489,
      "Ġasync": 6490,
      "Ġmistakes": 6491,
      "Ġadjacent": 6492,
      "Ġnever": 6493,
      "Ġroots": 6494,
      "Ġ>>": 6495,
      "Ġintegrated": 6496,
      "858": 6497,
      "products": 6498,
      "Ġ'''": 6499,
      "Ġanagrams": 6500,
      "Ġpsycopg": 6501,
      "086": 6502,
      "ĠBayes": 6503,
      "ĠBST": 6504,
      "Find": 6505,
      "Ġtim": 6506,
      "Ġwhenever": 6507,
      "lm": 6508,
      "punctuation": 6509,
      "Ġscikit": 6510,
      "Ġsimulate": 6511,
      "Ġsplits": 6512,
      "(&": 6513,
      "Ġdegree": 6514,
      "Ġframeworks": 6515,
      "Ġhardware": 6516,
      "report": 6517,
      "Character": 6518,
      "${": 6519,
      "Ġalternative": 6520,
      "ggle": 6521,
      "yper": 6522,
      "VER": 6523,
      "Ġrectify": 6524,
      "Ġpersonal": 6525,
      "Ġloaded": 6526,
      "Customer": 6527,
      "imp": 6528,
      "Ġfmt": 6529,
      "Ġscience": 6530,
      "Ġresolve": 6531,
      "Ġvectors": 6532,
      "Ġpinpoint": 6533,
      "seen": 6534,
      "Ġdeli": 6535,
      "ĠServices": 6536,
      "views": 6537,
      "Ġimpacts": 6538,
      "AI": 6539,
      "acle": 6540,
      "Ġreceive": 6541,
      "ĠEu": 6542,
      "mos": 6543,
      "Ġmodification": 6544,
      "pid": 6545,
      "png": 6546,
      "}'": 6547,
      "ĠVue": 6548,
      "Ġbalanced": 6549,
      "}\"": 6550,
      "ĠGET": 6551,
      "Ġ70": 6552,
      "Ġpalindromic": 6553,
      "Ġservers": 6554,
      "Ġtwe": 6555,
      "country": 6556,
      "Ġspread": 6557,
      "Ġaccomplishes": 6558,
      "Ġvulner": 6559,
      "ecause": 6560,
      "strong": 6561,
      "rroneous": 6562,
      "Palindrome": 6563,
      "Ġclassify": 6564,
      "ĠInvalid": 6565,
      "chain": 6566,
      "ĠGateway": 6567,
      "Ġseq": 6568,
      "Ġunivers": 6569,
      "Ġliter": 6570,
      "Ġrelease": 6571,
      "lists": 6572,
      "letters": 6573,
      "Ġexpans": 6574,
      "Ġrelationships": 6575,
      "Pool": 6576,
      "Val": 6577,
      "imple": 6578,
      "race": 6579,
      "ĠOper": 6580,
      "dients": 6581,
      "Ġpreprocess": 6582,
      "cade": 6583,
      "chema": 6584,
      "Ġcompatible": 6585,
      "\"{": 6586,
      "default": 6587,
      "oney": 6588,
      "classes": 6589,
      "Ġbranch": 6590,
      "pective": 6591,
      "aborate": 6592,
      "LowerCase": 6593,
      "Ġlit": 6594,
      "choice": 6595,
      "ĠAct": 6596,
      "EGIN": 6597,
      "TH": 6598,
      "Ġsaf": 6599,
      "Ġblob": 6600,
      "opacity": 6601,
      "ĠSVM": 6602,
      "Ġroll": 6603,
      "Ġlocated": 6604,
      "ama": 6605,
      "Ġmanual": 6606,
      "Ġdiverse": 6607,
      "ĠVector": 6608,
      "Ġrepeating": 6609,
      "$$": 6610,
      "ĠKeep": 6611,
      "Ġreceives": 6612,
      "ĠRegression": 6613,
      "Ġwra": 6614,
      "ĠSu": 6615,
      "ĠBl": 6616,
      "Before": 6617,
      "Ġopp": 6618,
      "ĠDATE": 6619,
      "Ġcomplic": 6620,
      "Ġframe": 6621,
      "preprocessing": 6622,
      "Ġofficial": 6623,
      "Ġinterested": 6624,
      "(*)": 6625,
      "del": 6626,
      "Ġexplore": 6627,
      "Ġchildren": 6628,
      "Ġera": 6629,
      "engine": 6630,
      "Ġgeneration": 6631,
      "Ġmembers": 6632,
      "Ġreads": 6633,
      "Ġpassing": 6634,
      "Ident": 6635,
      "Ã¶": 6636,
      "Ġbytes": 6637,
      "Ġnoise": 6638,
      "ĠShould": 6639,
      "Ġmethodology": 6640,
      "multiply": 6641,
      "Conv": 6642,
      "Ġbr": 6643,
      "perties": 6644,
      "Ġspecifics": 6645,
      "Ġamounts": 6646,
      "Ġobtained": 6647,
      "hi": 6648,
      "oted": 6649,
      "Ġexclude": 6650,
      "ĠConv": 6651,
      "Ġextend": 6652,
      "Ġprobably": 6653,
      "Head": 6654,
      "Out": 6655,
      "template": 6656,
      "Argument": 6657,
      "parameter": 6658,
      "ĠAVG": 6659,
      "\"},": 6660,
      "gon": 6661,
      "ĠMethod": 6662,
      "Ġdeveloped": 6663,
      "factors": 6664,
      "Ġforecast": 6665,
      "Ġcoefficients": 6666,
      "Ġfaulty": 6667,
      "family": 6668,
      "Ġfam": 6669,
      "Ġeditor": 6670,
      "uck": 6671,
      "ĠUnder": 6672,
      "Ġactive": 6673,
      "Ġinitializes": 6674,
      "Ġpseudo": 6675,
      "ĠÃ": 6676,
      "Ġredund": 6677,
      "Blur": 6678,
      "alies": 6679,
      "Ġcompletely": 6680,
      "Ġlies": 6681,
      "Ġpyramid": 6682,
      "gam": 6683,
      "ĠGridSearchCV": 6684,
      "NS": 6685,
      "hance": 6686,
      "save": 6687,
      "ÂŃ": 6688,
      "clf": 6689,
      "Ġcorresponds": 6690,
      "Ġadjusted": 6691,
      "Ġminimal": 6692,
      "Ġdigital": 6693,
      "Ġpolynomial": 6694,
      "fc": 6695,
      "racle": 6696,
      "llo": 6697,
      "ĠDiv": 6698,
      "Ġnecessarily": 6699,
      "Ġtokenizer": 6700,
      "ĠGraphQL": 6701,
      "ai": 6702,
      "rs": 6703,
      "Ġspect": 6704,
      "Ġdat": 6705,
      "Ġaren": 6706,
      "ĠMax": 6707,
      "Ġdisk": 6708,
      "Ġending": 6709,
      "Ġoptional": 6710,
      "Ġhappens": 6711,
      "session": 6712,
      "Ġintertw": 6713,
      "ermine": 6714,
      "ught": 6715,
      "pite": 6716,
      "leep": 6717,
      "Ġhover": 6718,
      "Ġclarify": 6719,
      "=[": 6720,
      "iou": 6721,
      "Ġcycle": 6722,
      "children": 6723,
      "ĠisPrime": 6724,
      "ĠSing": 6725,
      "Ġmagn": 6726,
      "standing": 6727,
      "Compose": 6728,
      "regular": 6729,
      "Ġpredicted": 6730,
      "IP": 6731,
      "Ġmenu": 6732,
      "Transform": 6733,
      "Ġsuffix": 6734,
      "Act": 6735,
      "gy": 6736,
      "vironment": 6737,
      "Ġrendering": 6738,
      "erial": 6739,
      "unit": 6740,
      "ĠSimilar": 6741,
      "clic": 6742,
      "frames": 6743,
      "Ġconstraint": 6744,
      "Furthermore": 6745,
      "Ġsound": 6746,
      "ĠSOL": 6747,
      "Ġcleaned": 6748,
      "pread": 6749,
      "Ġdfs": 6750,
      "44772": 6751,
      "Ġoptimizing": 6752,
      "ĠNoSQL": 6753,
      "Ġwides": 6754,
      "2091": 6755,
      "Ġdy": 6756,
      "gments": 6757,
      "Connection": 6758,
      "Ġitertools": 6759,
      "Unfortunately": 6760,
      "Area": 6761,
      "Random": 6762,
      "Ġincreased": 6763,
      "idence": 6764,
      "Ġdeveloper": 6765,
      "emory": 6766,
      "Ġserve": 6767,
      "Ġwidespread": 6768,
      "Ġglow": 6769,
      "Replace": 6770,
      "(`": 6771,
      "Ġtrou": 6772,
      "encrypt": 6773,
      "ĠWebGL": 6774,
      "Ġabstract": 6775,
      "!\")": 6776,
      "cu": 6777,
      "Ġdiagonal": 6778,
      "free": 6779,
      "Ġoutcomes": 6780,
      "lets": 6781,
      "Ġraises": 6782,
      "Ġ'/": 6783,
      "Ġcallback": 6784,
      "effect": 6785,
      "}.": 6786,
      "orical": 6787,
      "Ġroles": 6788,
      "ĠUnicode": 6789,
      "Post": 6790,
      "Ġscrap": 6791,
      "matic": 6792,
      "ĠSpec": 6793,
      "Ġcomposed": 6794,
      "Ġ_,": 6795,
      "Ġgrowth": 6796,
      "vas": 6797,
      "KE": 6798,
      "([-": 6799,
      "Ġscalable": 6800,
      "Cor": 6801,
      "grad": 6802,
      "\":\"": 6803,
      "Ġdisco": 6804,
      "Ġthreat": 6805,
      "ĠGu": 6806,
      "Ġsphere": 6807,
      "download": 6808,
      "window": 6809,
      "Ġ2008": 6810,
      "Ġpan": 6811,
      "Ġtimezone": 6812,
      "Ġasynchron": 6813,
      "ĠCall": 6814,
      "plan": 6815,
      "ĠView": 6816,
      "Ġintegral": 6817,
      "hors": 6818,
      "ĠPCA": 6819,
      "ĠMean": 6820,
      "Ġclosing": 6821,
      "Default": 6822,
      "Queue": 6823,
      "[:,": 6824,
      "Ġinvolving": 6825,
      "ĠLoop": 6826,
      "Analy": 6827,
      "package": 6828,
      "Ġcapability": 6829,
      "Ġexponent": 6830,
      "Ġboard": 6831,
      "Ġaccommodate": 6832,
      "olving": 6833,
      "ĠResult": 6834,
      "Ġencode": 6835,
      "Ġasking": 6836,
      "aeiou": 6837,
      "Ġ'',": 6838,
      "Ġextraction": 6839,
      "Ġsquared": 6840,
      "Ġlive": 6841,
      "advanced": 6842,
      "Config": 6843,
      "âĢĿ": 6844,
      "ÂŃÂŃ": 6845,
      "AD": 6846,
      "three": 6847,
      "ords": 6848,
      "ĠFramework": 6849,
      "acies": 6850,
      "Ġreadability": 6851,
      "npm": 6852,
      "Ġmedia": 6853,
      "ificial": 6854,
      "Ġlookup": 6855,
      "Ġconsistent": 6856,
      "Ġreliability": 6857,
      "Dist": 6858,
      "Ġsatisfy": 6859,
      "Ġderivative": 6860,
      "folio": 6861,
      "faces": 6862,
      "Ġ\".": 6863,
      "(\"\\": 6864,
      "Ġintersection": 6865,
      "Ġclosest": 6866,
      "azy": 6867,
      "Ġwhitespace": 6868,
      "Jane": 6869,
      "ä¸": 6870,
      "ĠComplex": 6871,
      "997": 6872,
      "Ġinsights": 6873,
      ")\"/>": 6874,
      "UTION": 6875,
      "Title": 6876,
      "inate": 6877,
      "Ġtokens": 6878,
      "Ġedit": 6879,
      "ĠSelect": 6880,
      "Ġforeach": 6881,
      "ĠValidate": 6882,
      "mplates": 6883,
      "paint": 6884,
      "Ġlimits": 6885,
      "ĠOb": 6886,
      "Base": 6887,
      "andra": 6888,
      "Ġchann": 6889,
      "Ġmanaged": 6890,
      "canner": 6891,
      "Ġfeedback": 6892,
      "ocal": 6893,
      "speed": 6894,
      "initial": 6895,
      "ialog": 6896,
      "Ġdevise": 6897,
      "ĠStandardScaler": 6898,
      "Ġminim": 6899,
      "([[": 6900,
      "Equal": 6901,
      "icograph": 6902,
      "ĠXOR": 6903,
      "<>();": 6904,
      "Ġimag": 6905,
      "Ġintricacies": 6906,
      "sales": 6907,
      "Ġdelimit": 6908,
      "Ġexhaustive": 6909,
      "Another": 6910,
      "aff": 6911,
      "Ġcmp": 6912,
      "Ġpool": 6913,
      "Ġwait": 6914,
      "Ġbackend": 6915,
      "Database": 6916,
      "AE": 6917,
      "hover": 6918,
      "white": 6919,
      "Ġphen": 6920,
      "ĠCreating": 6921,
      "aml": 6922,
      "header": 6923,
      "Ġindicate": 6924,
      "Ġattempt": 6925,
      "sel": 6926,
      "regex": 6927,
      "iders": 6928,
      "Empty": 6929,
      "cache": 6930,
      "volume": 6931,
      "mpy": 6932,
      "ĠQuery": 6933,
      ".\"\"\"": 6934,
      "ÃŃ": 6935,
      "unch": 6936,
      "Ġcontents": 6937,
      "Ġmatter": 6938,
      "Ġplaced": 6939,
      "Apple": 6940,
      "'\\": 6941,
      "Hel": 6942,
      "pus": 6943,
      "ĠGener": 6944,
      "collection": 6945,
      "Ġbehavi": 6946,
      "ĠLogistic": 6947,
      "Ġproportion": 6948,
      "sg": 6949,
      "Ġbug": 6950,
      "arrays": 6951,
      "Ġreliable": 6952,
      "arity": 6953,
      "Ġ'{": 6954,
      "Ġincrements": 6955,
      "Ġsearching": 6956,
      "EventListener": 6957,
      "Ġexplicitly": 6958,
      "how": 6959,
      "Ġcore": 6960,
      "Ġnotation": 6961,
      "ĠBase": 6962,
      "Ġscipy": 6963,
      "cludes": 6964,
      "Ġmultiplying": 6965,
      "Ġtrade": 6966,
      "Ġradi": 6967,
      "students": 6968,
      "Ġinstructions": 6969,
      "nan": 6970,
      "uitive": 6971,
      "Ġascertain": 6972,
      "isdigit": 6973,
      "Ġann": 6974,
      "Ġboundary": 6975,
      "Ġcoup": 6976,
      "Ġadvancements": 6977,
      "34315": 6978,
      "Ġdiscrepancies": 6979,
      "Both": 6980,
      "EC": 6981,
      "ĠHashMap": 6982,
      "ĠSOLUTION": 6983,
      "Method": 6984,
      "Ġdetermined": 6985,
      "Ġquickly": 6986,
      "Ġmovie": 6987,
      "batch": 6988,
      "Elements": 6989,
      "Format": 6990,
      "Ġreceived": 6991,
      "assandra": 6992,
      "Ġ42": 6993,
      "++.": 6994,
      "Ġmultiples": 6995,
      "Ġsimpler": 6996,
      "Ġsections": 6997,
      "suff": 6998,
      "Ġconditional": 6999,
      "positions": 7000,
      ")=": 7001,
      "stum": 7002,
      "Ġcompares": 7003,
      "epoch": 7004,
      "Ġexistence": 7005,
      "|:--------": 7006,
      "Ġasked": 7007,
      "orange": 7008,
      "auto": 7009,
      "}\\": 7010,
      "([\"": 7011,
      "Ġconsiderations": 7012,
      "Ġnumerals": 7013,
      "Ġpersist": 7014,
      "Ġphenomen": 7015,
      "Ġdem": 7016,
      "002": 7017,
      "prefix": 7018,
      "288": 7019,
      "Second": 7020,
      "FC": 7021,
      "HEN": 7022,
      "repe": 7023,
      "Ġ\"__": 7024,
      "ĠSch": 7025,
      "reversed": 7026,
      "strap": 7027,
      "Ġcontra": 7028,
      "ameter": 7029,
      "UC": 7030,
      "au": 7031,
      "Ġendl": 7032,
      "Ġmodifying": 7033,
      "Ġguarante": 7034,
      "aid": 7035,
      "hoot": 7036,
      "coherence": 7037,
      ",\"": 7038,
      "ĠOptim": 7039,
      "nx": 7040,
      "Ġgreen": 7041,
      "Ġintellig": 7042,
      "ĠNext": 7043,
      "++,": 7044,
      "ĠProject": 7045,
      "Wh": 7046,
      "ny": 7047,
      "}</": 7048,
      "onents": 7049,
      "exist": 7050,
      "utils": 7051,
      "Ġmonths": 7052,
      "Ġbri": 7053,
      "Ġopening": 7054,
      "56789": 7055,
      "DF": 7056,
      "Ġexchange": 7057,
      "Arrays": 7058,
      "Ġconfigurations": 7059,
      "Ġpreviously": 7060,
      "multi": 7061,
      "Ġroute": 7062,
      "Person": 7063,
      "Ġexper": 7064,
      "Therefore": 7065,
      "what": 7066,
      "Ġconstructs": 7067,
      "Ġquart": 7068,
      "Ġhurdles": 7069,
      "game": 7070,
      "Ġimpossible": 7071,
      "Ġpresented": 7072,
      "590": 7073,
      "send": 7074,
      "Ġ^": 7075,
      "history": 7076,
      "Ġtack": 7077,
      "Ġcomposite": 7078,
      "ĠQuick": 7079,
      "Ġclustering": 7080,
      "XX": 7081,
      "Ġnative": 7082,
      "elcome": 7083,
      "Ġlogistic": 7084,
      "Ġdot": 7085,
      "Ġstandards": 7086,
      "Ġhuman": 7087,
      "Ġstages": 7088,
      "Ġstrength": 7089,
      "alues": 7090,
      "ĠSVGs": 7091,
      "Ġnumeral": 7092,
      "IME": 7093,
      "Ġstudy": 7094,
      "Space": 7095,
      "Ġvolum": 7096,
      "idean": 7097,
      "ĠRo": 7098,
      "addEventListener": 7099,
      "perience": 7100,
      "copy": 7101,
      "happy": 7102,
      "ĠStack": 7103,
      "ĠReport": 7104,
      "bleshoot": 7105,
      "Odd": 7106,
      "Ġguess": 7107,
      "Ġsubstant": 7108,
      "Ġade": 7109,
      "admin": 7110,
      "ĠUT": 7111,
      "ifiers": 7112,
      "ĠRead": 7113,
      "description": 7114,
      "Ġestimate": 7115,
      "JAX": 7116,
      "Ġ\"))": 7117,
      "idity": 7118,
      "ipped": 7119,
      "Ġexamine": 7120,
      "AG": 7121,
      "Upper": 7122,
      "Ġdistances": 7123,
      "Alpha": 7124,
      "Page": 7125,
      "Ġ;": 7126,
      "Ġmixed": 7127,
      "anit": 7128,
      "clidean": 7129,
      "ancy": 7130,
      "Ġassumption": 7131,
      "ĠAlgorithm": 7132,
      "Ġflexibility": 7133,
      "ĠRandomForest": 7134,
      "toLowerCase": 7135,
      "Pl": 7136,
      "Ġ=_": 7137,
      "ĠOption": 7138,
      "268": 7139,
      "Ġsecret": 7140,
      "Ġ[],": 7141,
      "contact": 7142,
      "Ġbenefits": 7143,
      "Ã©": 7144,
      "Ġdecode": 7145,
      "ĠDisplay": 7146,
      "Merge": 7147,
      "ĠConstruct": 7148,
      "palindrom": 7149,
      "Ġgiving": 7150,
      "Ġrecent": 7151,
      "Ġrequiring": 7152,
      "Ġstrictly": 7153,
      "Ġfocusing": 7154,
      "orth": 7155,
      "Ġreplacing": 7156,
      "Attribute": 7157,
      "Ġlexicograph": 7158,
      ")+": 7159,
      "ouch": 7160,
      "ĠTask": 7161,
      "Ġranges": 7162,
      "Ġ300": 7163,
      "angles": 7164,
      "ĠFunctions": 7165,
      "sensitive": 7166,
      "Ġdia": 7167,
      "linearGradient": 7168,
      "Ġinvestment": 7169,
      "Ġsal": 7170,
      "Ġproposed": 7171,
      "land": 7172,
      "ressed": 7173,
      "Graph": 7174,
      "ech": 7175,
      "timestamp": 7176,
      "ĠVari": 7177,
      "Ref": 7178,
      "ĠDecision": 7179,
      "ontal": 7180,
      "Ġfalls": 7181,
      "entropy": 7182,
      "Ġshadow": 7183,
      "Ġroad": 7184,
      "ĠProcessing": 7185,
      "Ġiris": 7186,
      "Ġbugs": 7187,
      "ĠGCD": 7188,
      "Ġrapid": 7189,
      "translate": 7190,
      "porate": 7191,
      "nov": 7192,
      "Ġscroll": 7193,
      "abetes": 7194,
      "Ġsaid": 7195,
      "BEGIN": 7196,
      "ĠSc": 7197,
      "ĠSum": 7198,
      "Ġcorner": 7199,
      "Ġiterations": 7200,
      "END": 7201,
      "Ġwarning": 7202,
      "Ġbind": 7203,
      "acher": 7204,
      "recur": 7205,
      "Ġfilename": 7206,
      "Ġlatency": 7207,
      "Ġsplitting": 7208,
      "optimizer": 7209,
      "Ġfair": 7210,
      "Ġconsonant": 7211,
      ")?": 7212,
      "18590": 7213,
      "Ġswapping": 7214,
      "Ġutilizes": 7215,
      "Any": 7216,
      "<=": 7217,
      "lcm": 7218,
      "Ġconfigure": 7219,
      "ilience": 7220,
      "ĠProgramming": 7221,
      "Ġappends": 7222,
      "Ġdisplaying": 7223,
      "Ġmask": 7224,
      "crease": 7225,
      "contains": 7226,
      "KEY": 7227,
      "uter": 7228,
      "ĠCLI": 7229,
      "Ġdemand": 7230,
      "Ġminimize": 7231,
      "going": 7232,
      "Ġillustrate": 7233,
      "Util": 7234,
      "vered": 7235,
      "ĠPOST": 7236,
      "ĠBook": 7237,
      "connection": 7238,
      "Ġpartitioning": 7239,
      "innerHTML": 7240,
      "Ġintertwined": 7241,
      ")^": 7242,
      "charAt": 7243,
      "Ġskip": 7244,
      "Ġassumed": 7245,
      "79086": 7246,
      "|:------------": 7247,
      "Ġmaintains": 7248,
      "Ġrevolution": 7249,
      "bs": 7250,
      "scal": 7251,
      "alog": 7252,
      "quired": 7253,
      "Ġaccessed": 7254,
      "parser": 7255,
      "Ġcarefully": 7256,
      "Ensure": 7257,
      "Ġdiffer": 7258,
      "Control": 7259,
      "Ġdiscuss": 7260,
      "vv": 7261,
      "reci": 7262,
      "ipse": 7263,
      "symbol": 7264,
      ".__": 7265,
      "ASE": 7266,
      "Ġcut": 7267,
      "Ġ120": 7268,
      "Ġobjective": 7269,
      "Square": 7270,
      "321": 7271,
      "xyz": 7272,
      "Ġdestination": 7273,
      "Mult": 7274,
      "Ġmal": 7275,
      "Ġsupposed": 7276,
      "Selector": 7277,
      "WE": 7278,
      "jk": 7279,
      "pu": 7280,
      "ŀŀ": 7281,
      "ĠEd": 7282,
      "ĠSQLite": 7283,
      "Ġcomplicated": 7284,
      "wik": 7285,
      "only": 7286,
      "Ġblueprint": 7287,
      "Di": 7288,
      "Ġmanager": 7289,
      "Ġmember": 7290,
      "Ġphrases": 7291,
      "Since": 7292,
      "Ġresponses": 7293,
      "Ġsaved": 7294,
      "igma": 7295,
      "abling": 7296,
      "Ġanalyz": 7297,
      "Ġshowing": 7298,
      "Ġsamples": 7299,
      "uner": 7300,
      "Ġhour": 7301,
      "ĠAge": 7302,
      "__\":": 7303,
      "riter": 7304,
      "Ġretrieves": 7305,
      "Ġpermutation": 7306,
      "POST": 7307,
      "cross": 7308,
      "Ġexport": 7309,
      "ayer": 7310,
      "Ġreplacement": 7311,
      "Ġnecessitates": 7312,
      "Ġcaching": 7313,
      "asc": 7314,
      "ĠCustomers": 7315,
      "ĠMat": 7316,
      "Ġimproving": 7317,
      "Ġrecognition": 7318,
      "Ġprimarily": 7319,
      "original": 7320,
      "icing": 7321,
      "Ġconvention": 7322,
      "Ġprep": 7323,
      "Ġamid": 7324,
      "ĠRequire": 7325,
      "Ġavg": 7326,
      "015": 7327,
      "tol": 7328,
      "ancer": 7329,
      "ĠâĢľ": 7330,
      "Me": 7331,
      "Oper": 7332,
      "PA": 7333,
      "hering": 7334,
      "osthen": 7335,
      "Ġreduces": 7336,
      "ĠÎ": 7337,
      "Ġcsv": 7338,
      "ĠTw": 7339,
      "login": 7340,
      "mor": 7341,
      "Ġinvert": 7342,
      "semble": 7343,
      "idget": 7344,
      "osthenes": 7345,
      "Ġdx": 7346,
      "armon": 7347,
      "ĠBoth": 7348,
      "ishing": 7349,
      "Ġreplaces": 7350,
      "Ġeliminate": 7351,
      "Ġhealth": 7352,
      "cipl": 7353,
      "Ġfrequent": 7354,
      "orphic": 7355,
      "Ġspectrum": 7356,
      "CS": 7357,
      "Ġsoup": 7358,
      "007": 7359,
      "conv": 7360,
      "Ġunless": 7361,
      "Items": 7362,
      "Ġmicroservice": 7363,
      "Ġcompiler": 7364,
      "'):": 7365,
      "DI": 7366,
      "full": 7367,
      "ister": 7368,
      "Ġcaus": 7369,
      "Ġrepet": 7370,
      "003": 7371,
      "ĠLSTM": 7372,
      "Ġswift": 7373,
      "Ġolder": 7374,
      "Println": 7375,
      "Just": 7376,
      "foo": 7377,
      "lang": 7378,
      "attr": 7379,
      "Ġexcluding": 7380,
      "ĠSequential": 7381,
      "Ġpred": 7382,
      "Ġdeclar": 7383,
      "ĠRedshift": 7384,
      "Ġpreferred": 7385,
      "Ġanomalies": 7386,
      "ĠAJAX": 7387,
      "Ġemails": 7388,
      "[^": 7389,
      "Ġattention": 7390,
      "operation": 7391,
      ")*": 7392,
      "Ġcleaning": 7393,
      "RIMARY": 7394,
      "Ġscraping": 7395,
      "rator": 7396,
      "Ġemployed": 7397,
      "Ġâŀŀ": 7398,
      "ĠEl": 7399,
      "Address": 7400,
      "Details": 7401,
      "Ġhis": 7402,
      "Ġexit": 7403,
      "Ġraw": 7404,
      "Ġmultiplied": 7405,
      "YOUR": 7406,
      "secret": 7407,
      "Ġ++": 7408,
      "Ġreverses": 7409,
      "=$": 7410,
      "Option": 7411,
      "system": 7412,
      "tz": 7413,
      "ĠPo": 7414,
      "Ġ400": 7415,
      "ĠExpress": 7416,
      "Ġgradients": 7417,
      ">>>": 7418,
      "Ġinserted": 7419,
      "Ġsubsequently": 7420,
      "Ġouter": 7421,
      "Ġevenly": 7422,
      "Ġtrends": 7423,
      "Ġthought": 7424,
      "Ġconstitu": 7425,
      "ĠAssuming": 7426,
      "Ġintervals": 7427,
      "Mean": 7428,
      "ktop": 7429,
      "Ġsns": 7430,
      "tection": 7431,
      "Ġviews": 7432,
      "cision": 7433,
      "anu": 7434,
      "Ġsometimes": 7435,
      "uing": 7436,
      "around": 7437,
      "Ġaccessibility": 7438,
      "IO": 7439,
      "ĠET": 7440,
      "upation": 7441,
      "Ġnumerous": 7442,
      "Ġgraphic": 7443,
      "Task": 7444,
      "Ã¡": 7445,
      "leting": 7446,
      "ampling": 7447,
      "ĠImp": 7448,
      "Ġbelong": 7449,
      "Ġbyte": 7450,
      "Ġtrading": 7451,
      "Ġtransformers": 7452,
      "ĠHandling": 7453,
      "Sw": 7454,
      "lli": 7455,
      "ĠAng": 7456,
      "conf": 7457,
      "ĠGROUP": 7458,
      "types": 7459,
      "Ġinitialized": 7460,
      "Ġvisually": 7461,
      "Ġdescribe": 7462,
      "onym": 7463,
      "ĠUsers": 7464,
      "Ġ~": 7465,
      "Ġ65": 7466,
      "ategory": 7467,
      "rotate": 7468,
      "cosystem": 7469,
      "LIMIT": 7470,
      "directory": 7471,
      "rees": 7472,
      "Ġtoday": 7473,
      "Ġtrick": 7474,
      "static": 7475,
      "ernary": 7476,
      "Ġamidst": 7477,
      "Good": 7478,
      "Supp": 7479,
      "Ġintegrating": 7480,
      "randint": 7481,
      "(\\": 7482,
      "Cre": 7483,
      "]),": 7484,
      "jax": 7485,
      "Ġintroducing": 7486,
      "ĠScikit": 7487,
      "004": 7488,
      "Ġdetermining": 7489,
      "Ġbitwise": 7490,
      "Ġexperiment": 7491,
      "Ġsubstantial": 7492,
      "Current": 7493,
      "oton": 7494,
      "Ġfrustum": 7495,
      "Ġportfolio": 7496,
      "Ġsubtree": 7497,
      "Enc": 7498,
      "Ġdecrease": 7499,
      "Ġpreserving": 7500,
      "Ġpurchase": 7501,
      "\"])": 7502,
      "years": 7503,
      "Ġhistorical": 7504,
      "}}": 7505,
      "ruby": 7506,
      "ĠFilter": 7507,
      "Ġspecifies": 7508,
      "ĠAuto": 7509,
      "Ġ10000": 7510,
      "Ġdenomin": 7511,
      "Ġquadrant": 7512,
      "dat": 7513,
      "yp": 7514,
      "Ġmouse": 7515,
      "LU": 7516,
      "Url": 7517,
      "ĠSUM": 7518,
      "predi": 7519,
      "loads": 7520,
      "Ġregularization": 7521,
      "Ġreversing": 7522,
      "Ġextremely": 7523,
      "Ġbrief": 7524,
      "ĠStream": 7525,
      "Ġdiscount": 7526,
      "Ġclients": 7527,
      "ĠPerformance": 7528,
      "Ġrigor": 7529,
      "balanced": 7530,
      "sites": 7531,
      "Ġpus": 7532,
      "perform": 7533,
      "âĢĶ": 7534,
      "ĠLastly": 7535,
      "Ġslicing": 7536,
      "(!": 7537,
      "105": 7538,
      "3284": 7539,
      "Ġredirect": 7540,
      "onus": 7541,
      "Ġforget": 7542,
      "]['": 7543,
      "compare": 7544,
      "ropout": 7545,
      "Ġutility": 7546,
      "otype": 7547,
      "comb": 7548,
      "handle": 7549,
      "Ġearly": 7550,
      "anuary": 7551,
      "pub": 7552,
      "Ġans": 7553,
      "Ġdeque": 7554,
      "Ġcompleted": 7555,
      "Ġsizeof": 7556,
      "center": 7557,
      "Ġdriver": 7558,
      "Ġecosystem": 7559,
      "extract": 7560,
      "ĠAssume": 7561,
      "background": 7562,
      "Ġprofessional": 7563,
      "Ġlittle": 7564,
      "Ġdifferently": 7565,
      "Ġyields": 7566,
      "Ġphysical": 7567,
      "ĠGPT": 7568,
      "direction": 7569,
      "ina": 7570,
      "Ġ\"/": 7571,
      "ĠST": 7572,
      "Ġdog": 7573,
      "Heap": 7574,
      "ĠClick": 7575,
      "ĠNaN": 7576,
      "feren": 7577,
      "ORE": 7578,
      "Ġalt": 7579,
      "eled": 7580,
      "analy": 7581,
      "orders": 7582,
      "Ġdeleted": 7583,
      "src": 7584,
      "Ġprofile": 7585,
      "ĠManager": 7586,
      "Ġassignment": 7587,
      "Gaussian": 7588,
      "Ġshuffle": 7589,
      "aks": 7590,
      ".&": 7591,
      "QR": 7592,
      "quantity": 7593,
      "ĠForest": 7594,
      "ĠIts": 7595,
      "Status": 7596,
      "Ġtransmission": 7597,
      "ĠFirestore": 7598,
      "ĠLinkedList": 7599,
      "Ġsomeone": 7600,
      "strip": 7601,
      "ĠOracle": 7602,
      "Ġselecting": 7603,
      "rist": 7604,
      "Ġface": 7605,
      "ĠGe": 7606,
      "Ġpresence": 7607,
      "Ġrefined": 7608,
      "Ġsignificance": 7609,
      "safe": 7610,
      "Ġvulnerabilities": 7611,
      "Two": 7612,
      "aive": 7613,
      "utable": 7614,
      "Ġgre": 7615,
      "()))": 7616,
      "Ġswapped": 7617,
      "Unit": 7618,
      "oy": 7619,
      "Ġfire": 7620,
      "Ġblur": 7621,
      "complete": 7622,
      "ĠApply": 7623,
      "pag": 7624,
      "ĠPRIMARY": 7625,
      "Ġtracking": 7626,
      "elem": 7627,
      "squares": 7628,
      "ĠBERT": 7629,
      "tings": 7630,
      "ressor": 7631,
      "elsius": 7632,
      "Ġdecide": 7633,
      "ĠClient": 7634,
      "Ġsemant": 7635,
      "ĠSupport": 7636,
      "BC": 7637,
      "gg": 7638,
      "hel": 7639,
      "Ġsources": 7640,
      "role": 7641,
      "ĠMOD": 7642,
      "Ġspan": 7643,
      "Ġimprovements": 7644,
      "Bucket": 7645,
      "Ġretrieval": 7646,
      "Ġplugin": 7647,
      "Ġtemporary": 7648,
      "\"><": 7649,
      "ĠConnect": 7650,
      "eper": 7651,
      "ighest": 7652,
      "Ġ'@": 7653,
      "Ġdeploying": 7654,
      "Ġdoubly": 7655,
      "Ġasynchronous": 7656,
      "selves": 7657,
      "space": 7658,
      "-----": 7659,
      "Ġiterable": 7660,
      "Ġcentral": 7661,
      "Ġsynchronization": 7662,
      "DS": 7663,
      "hood": 7664,
      "vision": 7665,
      "Ġuniform": 7666,
      "filtered": 7667,
      "Ġbring": 7668,
      "loop": 7669,
      "Ġexponential": 7670,
      "Complete": 7671,
      "]`,": 7672,
      "Ġlisten": 7673,
      "Ġdoc": 7674,
      "Ġnormalization": 7675,
      "Ġreviews": 7676,
      "Ġresilience": 7677,
      "Ġgeneric": 7678,
      "Ġanalytics": 7679,
      "Ġinfo": 7680,
      "font": 7681,
      "heapp": 7682,
      "oter": 7683,
      "ĠMay": 7684,
      "fox": 7685,
      "Ġprecisely": 7686,
      "Ġthreats": 7687,
      "JS": 7688,
      "Ġreplic": 7689,
      "Ġease": 7690,
      "means": 7691,
      "ĠState": 7692,
      "Engine": 7693,
      "erc": 7694,
      "Ġintuitive": 7695,
      "Ġsaving": 7696,
      "Ġalpha": 7697,
      "typeof": 7698,
      "isinstance": 7699,
      "Ġpress": 7700,
      "Ġsympy": 7701,
      "Ġstats": 7702,
      "'},": 7703,
      "jpg": 7704,
      "power": 7705,
      "Ġsix": 7706,
      "Ġcontinuously": 7707,
      "DFS": 7708,
      "dll": 7709,
      "Ġnu": 7710,
      "Ġconfigured": 7711,
      "docs": 7712,
      "gramming": 7713,
      "evalu": 7714,
      "Dataset": 7715,
      "ĠComponent": 7716,
      "Ġperfectly": 7717,
      "sage": 7718,
      "Ġscientific": 7719,
      "ĠDev": 7720,
      "Ġenables": 7721,
      "apply": 7722,
      "Ġscripting": 7723,
      "Ġdesigning": 7724,
      "Process": 7725,
      "Ġbias": 7726,
      "Ġwidely": 7727,
      "Ġresultant": 7728,
      "Ġoverview": 7729,
      "ĠAngular": 7730,
      "Ġcook": 7731,
      "opy": 7732,
      "Ġgreatly": 7733,
      "Ġpoor": 7734,
      "ĠNon": 7735,
      "Ġsole": 7736,
      "Ġdecisions": 7737,
      "qr": 7738,
      "Ġsieve": 7739,
      "Module": 7740,
      "Ġsuperior": 7741,
      "meta": 7742,
      "Average": 7743,
      "isPrime": 7744,
      "Ġ'\\": 7745,
      "Ġ\"-": 7746,
      "Ġascii": 7747,
      "ashboard": 7748,
      "Ġvalidates": 7749,
      "Ġfailure": 7750,
      "Height": 7751,
      "ĠTrie": 7752,
      "call": 7753,
      "ellow": 7754,
      "alnum": 7755,
      "arithm": 7756,
      "ury": 7757,
      "Ġarise": 7758,
      "Ġende": 7759,
      "Ġboundaries": 7760,
      "Ġconcurrently": 7761,
      "Ġla": 7762,
      "idimensional": 7763,
      "Ġonto": 7764,
      "since": 7765,
      "Ġconte": 7766,
      "Ġflawed": 7767,
      "GaussianBlur": 7768,
      "110": 7769,
      "Ġcx": 7770,
      "Ġreaches": 7771,
      "Ġcop": 7772,
      "elta": 7773,
      "ĠWh": 7774,
      "Non": 7775,
      "ĠLCM": 7776,
      "birth": 7777,
      "Ġsending": 7778,
      "Ġready": 7779,
      "ĠInside": 7780,
      "Ġmac": 7781,
      "percus": 7782,
      "ĠMe": 7783,
      "Document": 7784,
      "inity": 7785,
      "Ġprod": 7786,
      "commit": 7787,
      "Ġgender": 7788,
      "Ġconsisting": 7789,
      "ĠFlink": 7790,
      "Ġbegins": 7791,
      "Ġmemoization": 7792,
      "Once": 7793,
      "clean": 7794,
      "opp": 7795,
      "week": 7796,
      "Ġobserved": 7797,
      "track": 7798,
      "Ag": 7799,
      "Ġtax": 7800,
      "ĠSquare": 7801,
      "ĠMAX": 7802,
      "Ġconsiders": 7803,
      "Ġtraject": 7804,
      "Ġdelve": 7805,
      "half": 7806,
      "Ġapps": 7807,
      "Ġmetric": 7808,
      "hesis": 7809,
      "ipping": 7810,
      "auth": 7811,
      "Ġthrown": 7812,
      "flatten": 7813,
      "Http": 7814,
      "gu": 7815,
      "Ġmeaningful": 7816,
      "Ġparticipant": 7817,
      "Ġtroubleshoot": 7818,
      "abled": 7819,
      "Ġunlike": 7820,
      "Ġdistingu": 7821,
      "inputs": 7822,
      "ĠDOM": 7823,
      "Ġdetected": 7824,
      "DP": 7825,
      "IL": 7826,
      "SERT": 7827,
      "ĠReverse": 7828,
      "card": 7829,
      "arb": 7830,
      "reshape": 7831,
      "El": 7832,
      "course": 7833,
      "entry": 7834,
      "Ġsear": 7835,
      "Ġneu": 7836,
      "ĠInsert": 7837,
      "indexed": 7838,
      "Ġaccounts": 7839,
      "ĠCustomer": 7840,
      "5000": 7841,
      "Ġlacks": 7842,
      "cluster": 7843,
      "Ġsuggestions": 7844,
      ".\",": 7845,
      "BST": 7846,
      "paces": 7847,
      "stats": 7848,
      "Ġdecreasing": 7849,
      "percussions": 7850,
      "Price": 7851,
      "Salary": 7852,
      "ĠHello": 7853,
      "Ġsymmet": 7854,
      "pretrained": 7855,
      "Ġdirectories": 7856,
      "Deviation": 7857,
      "Ġpreceding": 7858,
      "sd": 7859,
      "Ġecon": 7860,
      "Ġ`&#": 7861,
      "Ġgreet": 7862,
      "SU": 7863,
      "uel": 7864,
      "learning": 7865,
      "Ġprede": 7866,
      "private": 7867,
      "swift": 7868,
      "ĠStringBuilder": 7869,
      "dates": 7870,
      "pat": 7871,
      "Ġwish": 7872,
      "Ġ'<": 7873,
      "olve": 7874,
      "Ġexplo": 7875,
      "ĠEnd": 7876,
      "Ġgrace": 7877,
      "UE": 7878,
      "ele": 7879,
      "opping": 7880,
      "vity": 7881,
      "ĠDense": 7882,
      "Ġpossibility": 7883,
      "Units": 7884,
      "123456789": 7885,
      "MSE": 7886,
      "Ġenhancing": 7887,
      "Ġpiv": 7888,
      "Ġmass": 7889,
      "Ġnothing": 7890,
      "ĠFrom": 7891,
      "ĠKeras": 7892,
      "7614": 7893,
      "Ġdemonstrates": 7894,
      "Frequency": 7895,
      "Opt": 7896,
      "pool": 7897,
      "Ġpen": 7898,
      "Ġcontract": 7899,
      "Ġinvent": 7900,
      "Ġaccessing": 7901,
      "ILE": 7902,
      "Ġsch": 7903,
      "ism": 7904,
      "ĠJS": 7905,
      "Ġpret": 7906,
      "Ġsubmission": 7907,
      "Ġplus": 7908,
      "Ġcontained": 7909,
      "751": 7910,
      "Ġtechnical": 7911,
      "Ġrestrict": 7912,
      "tokenize": 7913,
      "ENT": 7914,
      "ypes": 7915,
      "Ġreset": 7916,
      "Ġthreading": 7917,
      "Ġassembly": 7918,
      "Ġ48": 7919,
      "Ġspecifications": 7920,
      "ĠSimilarly": 7921,
      "such": 7922,
      "wer": 7923,
      "ĠSk": 7924,
      "Ġpredefined": 7925,
      "Ġbasis": 7926,
      "sentences": 7927,
      "Ġstyling": 7928,
      "driver": 7929,
      "anic": 7930,
      "ĠAb": 7931,
      "Ġinternet": 7932,
      "Erroneous": 7933,
      "Ġ\"<": 7934,
      "Ġsupre": 7935,
      "Ġchars": 7936,
      ":\")": 7937,
      ">{": 7938,
      "ica": 7939,
      "ĠSy": 7940,
      "ĠRecur": 7941,
      "perfect": 7942,
      "ĠNormal": 7943,
      "Ġactivity": 7944,
      "forEach": 7945,
      "library": 7946,
      "inq": 7947,
      "Ġ37": 7948,
      "creen": 7949,
      "Ġspot": 7950,
      "supp": 7951,
      "Ġquestions": 7952,
      "Ġintroduce": 7953,
      "drawal": 7954,
      "456": 7955,
      "ĠIll": 7956,
      "ĠMatrix": 7957,
      "coll": 7958,
      "loader": 7959,
      "Ġignoring": 7960,
      "fruits": 7961,
      "consonants": 7962,
      "Ġexpert": 7963,
      "cv": 7964,
      "vised": 7965,
      "inv": 7966,
      "Ġongoing": 7967,
      "Ġinterfaces": 7968,
      "Ġdelay": 7969,
      "Ġqubits": 7970,
      "****": 7971,
      "Ġformed": 7972,
      "ithread": 7973,
      "crimin": 7974,
      "concat": 7975,
      "Ġtypical": 7976,
      "ĠChange": 7977,
      "Ġmultiplies": 7978,
      "Ġmagnitude": 7979,
      "dated": 7980,
      "ascal": 7981,
      "Ġtested": 7982,
      "Ġgrades": 7983,
      "Ġrevised": 7984,
      "Ġembedding": 7985,
      "ĠCommon": 7986,
      "Ġconcer": 7987,
      "Based": 7988,
      "radial": 7989,
      "some": 7990,
      "Ġmodeling": 7991,
      "AWS": 7992,
      "LS": 7993,
      "fi": 7994,
      "torch": 7995,
      "super": 7996,
      "poly": 7997,
      "ĠControl": 7998,
      "Ġli": 7999
    },
    "merges": [
      [
        "č",
        "Ċ"
      ],
      [
        "Ġ",
        "t"
      ],
      [
        "i",
        "n"
      ],
      [
        "Ġ",
        "a"
      ],
      [
        "h",
        "e"
      ],
      [
        "o",
        "n"
      ],
      [
        "r",
        "e"
      ],
      [
        "e",
        "r"
      ],
      [
        "a",
        "t"
      ],
      [
        "Ġt",
        "he"
      ],
      [
        "Ġ",
        "s"
      ],
      [
        "Ġ",
        "c"
      ],
      [
        "o",
        "r"
      ],
      [
        "e",
        "n"
      ],
      [
        "e",
        "s"
      ],
      [
        "i",
        "s"
      ],
      [
        "i",
        "t"
      ],
      [
        "i",
        "on"
      ],
      [
        "Ġ",
        "f"
      ],
      [
        "l",
        "e"
      ],
      [
        "in",
        "g"
      ],
      [
        "a",
        "l"
      ],
      [
        "a",
        "n"
      ],
      [
        "o",
        "u"
      ],
      [
        "Ġ",
        "p"
      ],
      [
        "c",
        "t"
      ],
      [
        "Ġ",
        "in"
      ],
      [
        "Ġ",
        "w"
      ],
      [
        "Ġa",
        "n"
      ],
      [
        "Ġ",
        "d"
      ],
      [
        "Ġ",
        "o"
      ],
      [
        "s",
        "e"
      ],
      [
        "a",
        "r"
      ],
      [
        "Ġ",
        "m"
      ],
      [
        "Ġ",
        "n"
      ],
      [
        "s",
        "t"
      ],
      [
        "Ġt",
        "o"
      ],
      [
        "Ġ",
        "b"
      ],
      [
        "r",
        "o"
      ],
      [
        "Ġ",
        "re"
      ],
      [
        "e",
        "d"
      ],
      [
        "Ġan",
        "d"
      ],
      [
        "i",
        "c"
      ],
      [
        "Ġo",
        "f"
      ],
      [
        "Ġ",
        "e"
      ],
      [
        "en",
        "t"
      ],
      [
        "Ġ",
        "="
      ],
      [
        "u",
        "m"
      ],
      [
        "Ġ",
        "l"
      ],
      [
        "`",
        "`"
      ],
      [
        "d",
        "e"
      ],
      [
        "m",
        "p"
      ],
      [
        "Ġt",
        "h"
      ],
      [
        "Ġ",
        "is"
      ],
      [
        "Ġ",
        "i"
      ],
      [
        "u",
        "t"
      ],
      [
        "e",
        "t"
      ],
      [
        "r",
        "a"
      ],
      [
        "Ġ",
        "1"
      ],
      [
        "ct",
        "ion"
      ],
      [
        "#",
        "#"
      ],
      [
        "Ġ",
        "u"
      ],
      [
        "Ġc",
        "o"
      ],
      [
        "u",
        "r"
      ],
      [
        "l",
        "l"
      ],
      [
        "v",
        "e"
      ],
      [
        "Ġ",
        "I"
      ],
      [
        "Ġs",
        "t"
      ],
      [
        "Ġ",
        "y"
      ],
      [
        "at",
        "ion"
      ],
      [
        "m",
        "e"
      ],
      [
        "c",
        "e"
      ],
      [
        "a",
        "s"
      ],
      [
        "Ġf",
        "or"
      ],
      [
        "q",
        "u"
      ],
      [
        "o",
        "t"
      ],
      [
        "r",
        "i"
      ],
      [
        "c",
        "h"
      ],
      [
        "o",
        "s"
      ],
      [
        "at",
        "e"
      ],
      [
        "l",
        "y"
      ],
      [
        "Ġ",
        "2"
      ],
      [
        "u",
        "n"
      ],
      [
        "Ġy",
        "ou"
      ],
      [
        "Ġ",
        "h"
      ],
      [
        "t",
        "h"
      ],
      [
        "Ġ",
        "it"
      ],
      [
        "Ġ",
        "T"
      ],
      [
        "u",
        "l"
      ],
      [
        "o",
        "w"
      ],
      [
        "is",
        "t"
      ],
      [
        "Ġp",
        "ro"
      ],
      [
        "er",
        "s"
      ],
      [
        "Ġ",
        "v"
      ],
      [
        "l",
        "d"
      ],
      [
        "``",
        "`"
      ],
      [
        "it",
        "h"
      ],
      [
        "g",
        "e"
      ],
      [
        "Ġb",
        "e"
      ],
      [
        "m",
        "ent"
      ],
      [
        "Ġ",
        "`"
      ],
      [
        "i",
        "g"
      ],
      [
        "Ġ",
        "'"
      ],
      [
        "Ġ",
        "("
      ],
      [
        "Ġc",
        "on"
      ],
      [
        "Ġ",
        "\""
      ],
      [
        "at",
        "a"
      ],
      [
        "i",
        "d"
      ],
      [
        "n",
        "t"
      ],
      [
        "Ġth",
        "at"
      ],
      [
        "in",
        "t"
      ],
      [
        "i",
        "f"
      ],
      [
        "Ġ",
        "g"
      ],
      [
        "r",
        "u"
      ],
      [
        "p",
        "t"
      ],
      [
        "ur",
        "n"
      ],
      [
        "Ġw",
        "ith"
      ],
      [
        "Ġn",
        "um"
      ],
      [
        "b",
        "le"
      ],
      [
        "Ġ",
        "S"
      ],
      [
        "un",
        "ction"
      ],
      [
        "Ġa",
        "s"
      ],
      [
        "Ġre",
        "t"
      ],
      [
        "##",
        "#"
      ],
      [
        "v",
        "er"
      ],
      [
        "-",
        "-"
      ],
      [
        "Ġi",
        "f"
      ],
      [
        "or",
        "t"
      ],
      [
        "Ġret",
        "urn"
      ],
      [
        "o",
        "l"
      ],
      [
        "Ġ",
        "čĊ"
      ],
      [
        "Ġ",
        "on"
      ],
      [
        "i",
        "l"
      ],
      [
        "p",
        "p"
      ],
      [
        "Ġin",
        "t"
      ],
      [
        "Ġ",
        "or"
      ],
      [
        "Ġf",
        "unction"
      ],
      [
        "Ġe",
        "x"
      ],
      [
        "Ġ",
        "A"
      ],
      [
        "ou",
        "ld"
      ],
      [
        "es",
        "t"
      ],
      [
        "Ġ",
        "P"
      ],
      [
        "r",
        "ing"
      ],
      [
        "Ġ",
        "R"
      ],
      [
        "mp",
        "le"
      ],
      [
        "c",
        "k"
      ],
      [
        "Ġ",
        "C"
      ],
      [
        "y",
        "th"
      ],
      [
        "Ġ",
        "{"
      ],
      [
        "Ġs",
        "e"
      ],
      [
        "p",
        "e"
      ],
      [
        "yth",
        "on"
      ],
      [
        "k",
        "e"
      ],
      [
        "Ġth",
        "is"
      ],
      [
        "a",
        "se"
      ],
      [
        "Ġd",
        "e"
      ],
      [
        "an",
        "d"
      ],
      [
        "Ġd",
        "ata"
      ],
      [
        "re",
        "s"
      ],
      [
        "a",
        "d"
      ],
      [
        "Ġ",
        "|"
      ],
      [
        "i",
        "m"
      ],
      [
        "Ġc",
        "an"
      ],
      [
        "Ġm",
        "o"
      ],
      [
        "Ġnum",
        "b"
      ],
      [
        "Ġu",
        "s"
      ],
      [
        "(",
        ")"
      ],
      [
        "es",
        "s"
      ],
      [
        "Ġn",
        "e"
      ],
      [
        "i",
        "r"
      ],
      [
        "p",
        "ut"
      ],
      [
        "Ġn",
        "ot"
      ],
      [
        "p",
        "l"
      ],
      [
        "ĠI",
        "n"
      ],
      [
        "Ġm",
        "a"
      ],
      [
        "ul",
        "t"
      ],
      [
        "Ġ",
        "0"
      ],
      [
        "e",
        "re"
      ],
      [
        "i",
        "v"
      ],
      [
        "al",
        "u"
      ],
      [
        "Ġa",
        "r"
      ],
      [
        "o",
        "m"
      ],
      [
        "Ġa",
        "re"
      ],
      [
        "Ġs",
        "u"
      ],
      [
        "Ġ",
        "r"
      ],
      [
        "i",
        "z"
      ],
      [
        "p",
        "on"
      ],
      [
        "0",
        "0"
      ],
      [
        "i",
        "ve"
      ],
      [
        "ro",
        "m"
      ],
      [
        "ĠT",
        "he"
      ],
      [
        "h",
        "t"
      ],
      [
        "l",
        "o"
      ],
      [
        "en",
        "d"
      ],
      [
        "an",
        "t"
      ],
      [
        "a",
        "ge"
      ],
      [
        "Ġs",
        "h"
      ],
      [
        "r",
        "int"
      ],
      [
        "it",
        "y"
      ],
      [
        "a",
        "me"
      ],
      [
        "Ġa",
        "l"
      ],
      [
        "or",
        "d"
      ],
      [
        "Ġyou",
        "r"
      ],
      [
        "Ġ",
        "3"
      ],
      [
        "Ġ",
        "F"
      ],
      [
        "i",
        "ll"
      ],
      [
        "st",
        "ru"
      ],
      [
        "Ġc",
        "h"
      ],
      [
        "Ġw",
        "h"
      ],
      [
        "Ġ",
        "<"
      ],
      [
        ")",
        ":"
      ],
      [
        "o",
        "d"
      ],
      [
        "Ġ",
        "["
      ],
      [
        "ou",
        "t"
      ],
      [
        "a",
        "ct"
      ],
      [
        "'",
        "s"
      ],
      [
        "e",
        "m"
      ],
      [
        "Ġco",
        "de"
      ],
      [
        "ra",
        "y"
      ],
      [
        "h",
        "is"
      ],
      [
        "ou",
        "nt"
      ],
      [
        "as",
        "s"
      ],
      [
        "u",
        "re"
      ],
      [
        "Ġl",
        "ist"
      ],
      [
        "pon",
        "se"
      ],
      [
        "Ġw",
        "e"
      ],
      [
        "Ġ",
        "-"
      ],
      [
        "Ġu",
        "se"
      ],
      [
        "p",
        "er"
      ],
      [
        "e",
        "x"
      ],
      [
        "a",
        "y"
      ],
      [
        "e",
        "ct"
      ],
      [
        "Ġre",
        "s"
      ],
      [
        "a",
        "ble"
      ],
      [
        "or",
        "m"
      ],
      [
        "ĠR",
        "es"
      ],
      [
        "a",
        "m"
      ],
      [
        "stru",
        "ction"
      ],
      [
        "Ġ",
        "qu"
      ],
      [
        "a",
        "ch"
      ],
      [
        "=",
        "\""
      ],
      [
        "i",
        "es"
      ],
      [
        "c",
        "c"
      ],
      [
        "Ġ",
        "}"
      ],
      [
        "le",
        "ment"
      ],
      [
        "b",
        "os"
      ],
      [
        "ĠRes",
        "ponse"
      ],
      [
        "i",
        "al"
      ],
      [
        "ĠIn",
        "struction"
      ],
      [
        "e",
        "os"
      ],
      [
        "a",
        "in"
      ],
      [
        "he",
        "r"
      ],
      [
        "Ġ",
        "+"
      ],
      [
        "d",
        "d"
      ],
      [
        ")",
        ";"
      ],
      [
        "a",
        "b"
      ],
      [
        "s",
        "o"
      ],
      [
        "Ġst",
        "ring"
      ],
      [
        "c",
        "l"
      ],
      [
        "ar",
        "y"
      ],
      [
        "Ġnumb",
        "er"
      ],
      [
        "'",
        ","
      ],
      [
        "Ġ",
        "#"
      ],
      [
        "Ġb",
        "y"
      ],
      [
        "ar",
        "t"
      ],
      [
        "Ġsh",
        "ould"
      ],
      [
        "i",
        "le"
      ],
      [
        "o",
        "re"
      ],
      [
        "Ġ",
        "D"
      ],
      [
        "Ġf",
        "rom"
      ],
      [
        "n",
        "d"
      ],
      [
        "Ġ",
        "M"
      ],
      [
        "t",
        "er"
      ],
      [
        "in",
        "e"
      ],
      [
        "a",
        "v"
      ],
      [
        "Ġ",
        "le"
      ],
      [
        "c",
        "ri"
      ],
      [
        "o",
        "de"
      ],
      [
        "g",
        "ra"
      ],
      [
        "Ġv",
        "alu"
      ],
      [
        "Ġco",
        "mp"
      ],
      [
        "in",
        "d"
      ],
      [
        "it",
        "ion"
      ],
      [
        ")",
        ")"
      ],
      [
        "f",
        "orm"
      ],
      [
        "Ġw",
        "ill"
      ],
      [
        "u",
        "st"
      ],
      [
        "u",
        "s"
      ],
      [
        "Ġa",
        "pp"
      ],
      [
        "ĠP",
        "ython"
      ],
      [
        "/",
        "/"
      ],
      [
        "cri",
        "pt"
      ],
      [
        "Ġa",
        "ll"
      ],
      [
        "--",
        "--"
      ],
      [
        "i",
        "b"
      ],
      [
        "Ġ",
        "H"
      ],
      [
        "Ġl",
        "o"
      ],
      [
        "Ġus",
        "ing"
      ],
      [
        "Ġ",
        "en"
      ],
      [
        "ex",
        "t"
      ],
      [
        "Ġc",
        "l"
      ],
      [
        "Ġw",
        "he"
      ],
      [
        "r",
        "or"
      ],
      [
        "al",
        "l"
      ],
      [
        "ic",
        "al"
      ],
      [
        "\"",
        ","
      ],
      [
        "Ġ",
        "N"
      ],
      [
        "i",
        "re"
      ],
      [
        "e",
        "g"
      ],
      [
        "Ġd",
        "o"
      ],
      [
        "an",
        "ce"
      ],
      [
        "Ġar",
        "ray"
      ],
      [
        "Ġ",
        "5"
      ],
      [
        "mp",
        "ort"
      ],
      [
        "ig",
        "ht"
      ],
      [
        "ic",
        "h"
      ],
      [
        "l",
        "f"
      ],
      [
        "T",
        "he"
      ],
      [
        "Ġ",
        "E"
      ],
      [
        "Ġe",
        "lement"
      ],
      [
        "Ġe",
        "ach"
      ],
      [
        "an",
        "g"
      ],
      [
        "ou",
        "r"
      ],
      [
        "u",
        "b"
      ],
      [
        "i",
        "me"
      ],
      [
        "ation",
        "s"
      ],
      [
        "Ġ",
        "he"
      ],
      [
        "Ġ",
        "B"
      ],
      [
        "de",
        "f"
      ],
      [
        "a",
        "ve"
      ],
      [
        "p",
        "ython"
      ],
      [
        "l",
        "ic"
      ],
      [
        "I",
        "n"
      ],
      [
        "Ġ",
        "4"
      ],
      [
        "i",
        "e"
      ],
      [
        "Ġ",
        "*"
      ],
      [
        "Ġcon",
        "t"
      ],
      [
        "f",
        "f"
      ],
      [
        "Ġwh",
        "ich"
      ],
      [
        "c",
        "on"
      ],
      [
        "an",
        "ge"
      ],
      [
        "a",
        "p"
      ],
      [
        "Ġ",
        "L"
      ],
      [
        "Ġch",
        "ar"
      ],
      [
        "a",
        "re"
      ],
      [
        "he",
        "ck"
      ],
      [
        "n",
        "um"
      ],
      [
        "a",
        "g"
      ],
      [
        "o",
        "p"
      ],
      [
        "p",
        "rint"
      ],
      [
        "gra",
        "m"
      ],
      [
        "e",
        "l"
      ],
      [
        "Ġres",
        "ult"
      ],
      [
        "(",
        "\""
      ],
      [
        "i",
        "p"
      ],
      [
        "Ġ",
        "O"
      ],
      [
        "Ġin",
        "put"
      ],
      [
        "en",
        "ce"
      ],
      [
        "ut",
        "ion"
      ],
      [
        "d",
        "u"
      ],
      [
        "iz",
        "e"
      ],
      [
        "Ġ",
        "J"
      ],
      [
        "pe",
        "c"
      ],
      [
        "an",
        "s"
      ],
      [
        "Ġa",
        "dd"
      ],
      [
        "e",
        "p"
      ],
      [
        "Ġs",
        "ol"
      ],
      [
        "Ġm",
        "et"
      ],
      [
        "a",
        "ck"
      ],
      [
        "Ġh",
        "ave"
      ],
      [
        "at",
        "es"
      ],
      [
        "at",
        "ed"
      ],
      [
        "Ġ",
        "out"
      ],
      [
        "Ġ",
        "$"
      ],
      [
        "Ġmo",
        "de"
      ],
      [
        "Ġ=",
        "="
      ],
      [
        "Ġ",
        "W"
      ],
      [
        "Ġa",
        "t"
      ],
      [
        "Ġnumb",
        "ers"
      ],
      [
        "ĠI",
        "f"
      ],
      [
        "Ġp",
        "er"
      ],
      [
        "a",
        "ce"
      ],
      [
        ")",
        ","
      ],
      [
        "on",
        "e"
      ],
      [
        "ĠT",
        "his"
      ],
      [
        "Ġp",
        "rint"
      ],
      [
        "i",
        "de"
      ],
      [
        "d",
        "i"
      ],
      [
        "Ġ",
        "er"
      ],
      [
        "r",
        "y"
      ],
      [
        "i",
        "ke"
      ],
      [
        "c",
        "ess"
      ],
      [
        "Ġh",
        "and"
      ],
      [
        "t",
        "her"
      ],
      [
        "a",
        "mple"
      ],
      [
        "or",
        "k"
      ],
      [
        "Ġmode",
        "l"
      ],
      [
        "ir",
        "st"
      ],
      [
        "Ġu",
        "n"
      ],
      [
        "Ġne",
        "ed"
      ],
      [
        "en",
        "g"
      ],
      [
        "p",
        "h"
      ],
      [
        "T",
        "his"
      ],
      [
        "Ġs",
        "o"
      ],
      [
        "Ġal",
        "so"
      ],
      [
        "Ġp",
        "re"
      ],
      [
        "Ġ",
        "j"
      ],
      [
        "Ġ",
        "G"
      ],
      [
        "Ġre",
        "qu"
      ],
      [
        "]",
        ","
      ],
      [
        "h",
        "od"
      ],
      [
        "(",
        "'"
      ],
      [
        "j",
        "ect"
      ],
      [
        "Ġ",
        "ro"
      ],
      [
        "Ġco",
        "m"
      ],
      [
        "Ġc",
        "re"
      ],
      [
        "Ġchar",
        "act"
      ],
      [
        "a",
        "c"
      ],
      [
        "Ġpro",
        "gram"
      ],
      [
        "at",
        "h"
      ],
      [
        "ke",
        "y"
      ],
      [
        "Ġs",
        "c"
      ],
      [
        "at",
        "ing"
      ],
      [
        ")",
        "."
      ],
      [
        "Ġco",
        "mple"
      ],
      [
        "al",
        "ly"
      ],
      [
        "Ġcl",
        "ass"
      ],
      [
        "H",
        "ere"
      ],
      [
        "Ġs",
        "et"
      ],
      [
        "Ġs",
        "pec"
      ],
      [
        "se",
        "t"
      ],
      [
        "Ġ",
        "//"
      ],
      [
        "ar",
        "i"
      ],
      [
        "s",
        "ion"
      ],
      [
        "ig",
        "n"
      ],
      [
        "Ġ1",
        "0"
      ],
      [
        "Ġde",
        "f"
      ],
      [
        "Ġe",
        "l"
      ],
      [
        "Ġmet",
        "hod"
      ],
      [
        "if",
        "ic"
      ],
      [
        "Ġvalu",
        "e"
      ],
      [
        "Ġne",
        "w"
      ],
      [
        "Ġpro",
        "v"
      ],
      [
        "Ġint",
        "eg"
      ],
      [
        "Ġa",
        "cc"
      ],
      [
        "Ġint",
        "o"
      ],
      [
        "c",
        "ul"
      ],
      [
        "Ġ",
        "U"
      ],
      [
        "av",
        "a"
      ],
      [
        "Ġc",
        "heck"
      ],
      [
        "cl",
        "u"
      ],
      [
        "Ġco",
        "l"
      ],
      [
        "it",
        "e"
      ],
      [
        "Ġc",
        "ount"
      ],
      [
        "Ġ",
        "6"
      ],
      [
        "a",
        "st"
      ],
      [
        "ant",
        "um"
      ],
      [
        "Ġs",
        "y"
      ],
      [
        "Ġc",
        "al"
      ],
      [
        "Ġp",
        "ri"
      ],
      [
        "f",
        "ere"
      ],
      [
        "Ġl",
        "ike"
      ],
      [
        "Ġp",
        "os"
      ],
      [
        "g",
        "et"
      ],
      [
        "st",
        "ring"
      ],
      [
        "iv",
        "en"
      ],
      [
        "9",
        "9"
      ],
      [
        "n",
        "ame"
      ],
      [
        "Ġc",
        "or"
      ],
      [
        "ce",
        "pt"
      ],
      [
        "a",
        "il"
      ],
      [
        "eng",
        "th"
      ],
      [
        "en",
        "c"
      ],
      [
        "Ġm",
        "e"
      ],
      [
        "st",
        "em"
      ],
      [
        "Ġthe",
        "n"
      ],
      [
        "r",
        "ans"
      ],
      [
        "Ġer",
        "ror"
      ],
      [
        "ĠI",
        "t"
      ],
      [
        "Ġw",
        "ord"
      ],
      [
        "Ġs",
        "ort"
      ],
      [
        "ou",
        "nd"
      ],
      [
        "Ġt",
        "w"
      ],
      [
        "ble",
        "m"
      ],
      [
        "Ġb",
        "ut"
      ],
      [
        "Ġw",
        "ould"
      ],
      [
        "s",
        "er"
      ],
      [
        "l",
        "es"
      ],
      [
        "Ġcomple",
        "x"
      ],
      [
        "Ġan",
        "y"
      ],
      [
        "ur",
        "re"
      ],
      [
        "al",
        "id"
      ],
      [
        "de",
        "x"
      ],
      [
        "ar",
        "d"
      ],
      [
        "ou",
        "s"
      ],
      [
        "Ġpro",
        "blem"
      ],
      [
        "d",
        "ata"
      ],
      [
        "Ġf",
        "o"
      ],
      [
        "Ġqu",
        "antum"
      ],
      [
        "Ġsu",
        "b"
      ],
      [
        "ic",
        "e"
      ],
      [
        "1",
        "2"
      ],
      [
        "ra",
        "in"
      ],
      [
        "o",
        "o"
      ],
      [
        "en",
        "er"
      ],
      [
        "er",
        "y"
      ],
      [
        "1",
        "0"
      ],
      [
        "g",
        "or"
      ],
      [
        "Ġt",
        "ime"
      ],
      [
        "i",
        "ent"
      ],
      [
        "l",
        "ist"
      ],
      [
        "Ġt",
        "y"
      ],
      [
        "Ġs",
        "um"
      ],
      [
        "Ġr",
        "ange"
      ],
      [
        "w",
        "ord"
      ],
      [
        "Ġf",
        "irst"
      ],
      [
        "mple",
        "ment"
      ],
      [
        "ru",
        "e"
      ],
      [
        "Ġ",
        "x"
      ],
      [
        "Ġtw",
        "o"
      ],
      [
        "Ġ",
        "7"
      ],
      [
        "on",
        "g"
      ],
      [
        "S",
        "t"
      ],
      [
        "Ġelement",
        "s"
      ],
      [
        "Y",
        "ou"
      ],
      [
        "b",
        "ase"
      ],
      [
        "Ġd",
        "if"
      ],
      [
        "Ġ",
        "8"
      ],
      [
        "Ġin",
        "st"
      ],
      [
        "Ġmo",
        "re"
      ],
      [
        "if",
        "y"
      ],
      [
        "Ġo",
        "per"
      ],
      [
        "b",
        "er"
      ],
      [
        "Ġthe",
        "se"
      ],
      [
        "as",
        "k"
      ],
      [
        "u",
        "e"
      ],
      [
        "a",
        "pp"
      ],
      [
        "Ġu",
        "p"
      ],
      [
        "Ġsol",
        "ution"
      ],
      [
        "Ġit",
        "s"
      ],
      [
        "Ġh",
        "as"
      ],
      [
        "Ġm",
        "at"
      ],
      [
        "Ġe",
        "v"
      ],
      [
        "<",
        "/"
      ],
      [
        "Ġcal",
        "cul"
      ],
      [
        "Ġuse",
        "d"
      ],
      [
        "Ġcon",
        "s"
      ],
      [
        "Ġse",
        "lf"
      ],
      [
        "*",
        "*"
      ],
      [
        "Ġwhe",
        "re"
      ],
      [
        "d",
        "er"
      ],
      [
        "Ġm",
        "an"
      ],
      [
        "re",
        "ct"
      ],
      [
        "ll",
        "ow"
      ],
      [
        "Ġm",
        "ult"
      ],
      [
        "Ġ",
        "k"
      ],
      [
        "l",
        "ow"
      ],
      [
        "Ġe",
        "ff"
      ],
      [
        "Ġa",
        "b"
      ],
      [
        "u",
        "al"
      ],
      [
        "c",
        "o"
      ],
      [
        "Ġ",
        "9"
      ],
      [
        "Ġvalu",
        "es"
      ],
      [
        "Ġh",
        "ow"
      ],
      [
        "d",
        "ent"
      ],
      [
        "i",
        "mport"
      ],
      [
        "Ġon",
        "e"
      ],
      [
        "re",
        "e"
      ],
      [
        "Ġi",
        "mport"
      ],
      [
        "Ġ",
        ">"
      ],
      [
        "Ġg",
        "iven"
      ],
      [
        "a",
        "k"
      ],
      [
        "f",
        "t"
      ],
      [
        "Ġcom",
        "m"
      ],
      [
        "Q",
        "L"
      ],
      [
        "Ġo",
        "b"
      ],
      [
        "m",
        "at"
      ],
      [
        "t",
        "y"
      ],
      [
        "Ġus",
        "er"
      ],
      [
        "'",
        "t"
      ],
      [
        "Ġdo",
        "es"
      ],
      [
        "s",
        "um"
      ],
      [
        "'",
        ")"
      ],
      [
        "Ġs",
        "er"
      ],
      [
        "'",
        ":"
      ],
      [
        "at",
        "ive"
      ],
      [
        "al",
        "se"
      ],
      [
        "t",
        "o"
      ],
      [
        "Ġma",
        "x"
      ],
      [
        "Ġd",
        "es"
      ],
      [
        "n",
        "s"
      ],
      [
        "Ġfo",
        "llow"
      ],
      [
        "Ġ",
        "key"
      ],
      [
        "Ġel",
        "se"
      ],
      [
        "p",
        "res"
      ],
      [
        "3",
        "4"
      ],
      [
        "Ġp",
        "l"
      ],
      [
        "Ġt",
        "est"
      ],
      [
        "Ġdif",
        "fere"
      ],
      [
        "Ġv",
        "ari"
      ],
      [
        "o",
        "int"
      ],
      [
        "Ġs",
        "i"
      ],
      [
        "r",
        "ou"
      ],
      [
        "Ġon",
        "ly"
      ],
      [
        "Ġcomp",
        "ut"
      ],
      [
        "e",
        "c"
      ],
      [
        "Ġex",
        "ample"
      ],
      [
        "ar",
        "n"
      ],
      [
        "]",
        ")"
      ],
      [
        "i",
        "qu"
      ],
      [
        "ĠJ",
        "ava"
      ],
      [
        "et",
        "w"
      ],
      [
        "ith",
        "m"
      ],
      [
        "n",
        "e"
      ],
      [
        "se",
        "lf"
      ],
      [
        "Ġg",
        "et"
      ],
      [
        "\"",
        ")"
      ],
      [
        "i",
        "ble"
      ],
      [
        "----",
        "----"
      ],
      [
        "Ġi",
        "mplement"
      ],
      [
        "Ġth",
        "an"
      ],
      [
        "Ġper",
        "form"
      ],
      [
        "o",
        "ve"
      ],
      [
        "Ġa",
        "d"
      ],
      [
        "Ġc",
        "ould"
      ],
      [
        "Ġin",
        "clu"
      ],
      [
        "is",
        "e"
      ],
      [
        "Ġt",
        "e"
      ],
      [
        "c",
        "om"
      ],
      [
        "Ġd",
        "i"
      ],
      [
        "qu",
        "ence"
      ],
      [
        "Ġ",
        "V"
      ],
      [
        "ent",
        "ial"
      ],
      [
        "ĠS",
        "t"
      ],
      [
        "Ġo",
        "ver"
      ],
      [
        "Ġst",
        "r"
      ],
      [
        "Ġint",
        "er"
      ],
      [
        "urre",
        "nt"
      ],
      [
        "Ġo",
        "ther"
      ],
      [
        "Ġf",
        "ind"
      ],
      [
        "Ġsu",
        "ch"
      ],
      [
        "Ġhand",
        "le"
      ],
      [
        "Ġout",
[...]
